/*
 * Copyright 2018-2021 NXP
 * All rights reserved.
 *
 * SPDX-License-Identifier: BSD-3-Clause
 */

// This is a pre-trained TensorFlow Lite ds_cnn_s.tflite
// model file that has been converted into a C data array, so it can be easily
// compiled into a binary for devices that don't have a file system.
// It was created using the command
// (with additional modification for alignment specification):
// xxd -i ds_cnn_s.tflite > model_data.h

#ifndef __XCC__
#include <cmsis_compiler.h>
#else
#define __ALIGNED(x) __attribute__((aligned(x)))
#endif

#define MODEL_NAME "ds_cnn_s"
#define MODEL_INPUT_MEAN -99.5f
#define MODEL_INPUT_STD 127.5f

//static const uint8_t model_data[] __ALIGNED(16) = {
//  0x20, 0x00, 0x00, 0x00, 0x54, 0x46, 0x4c, 0x33, 0x00, 0x00, 0x00, 0x00,
//  0x14, 0x00, 0x20, 0x00, 0x04, 0x00, 0x08, 0x00, 0x0c, 0x00, 0x10, 0x00,
//  0x14, 0x00, 0x00, 0x00, 0x18, 0x00, 0x1c, 0x00, 0x14, 0x00, 0x00, 0x00,
//  0x03, 0x00, 0x00, 0x00, 0x18, 0x00, 0x00, 0x00, 0x38, 0x00, 0x00, 0x00,
//  0x30, 0x01, 0x00, 0x00, 0x38, 0x00, 0x00, 0x00, 0xd8, 0x00, 0x00, 0x00,
//  0xd0, 0x00, 0x00, 0x00, 0x08, 0x00, 0x00, 0x00, 0x28, 0x15, 0x00, 0x00,
//  0xa4, 0x13, 0x00, 0x00, 0x28, 0x10, 0x00, 0x00, 0x90, 0x05, 0x00, 0x00,
//  0xb8, 0x04, 0x00, 0x00, 0x84, 0x03, 0x00, 0x00, 0xd8, 0x02, 0x00, 0x00,
//  0x50, 0x02, 0x00, 0x00, 0x01, 0x00, 0x00, 0x00, 0x1c, 0x01, 0x00, 0x00,
//  0x27, 0x00, 0x00, 0x00, 0x5c, 0xbe, 0x00, 0x00, 0x58, 0xbe, 0x00, 0x00,
//  0x84, 0xbd, 0x00, 0x00, 0x54, 0xaf, 0x00, 0x00, 0x48, 0xaa, 0x00, 0x00,
//  0xc8, 0xa3, 0x00, 0x00, 0x98, 0x9e, 0x00, 0x00, 0x28, 0x8b, 0x00, 0x00,
//  0x1c, 0x86, 0x00, 0x00, 0x98, 0x7f, 0x00, 0x00, 0x68, 0x7a, 0x00, 0x00,
//  0xf8, 0x66, 0x00, 0x00, 0xe8, 0x61, 0x00, 0x00, 0x68, 0x5b, 0x00, 0x00,
//  0x38, 0x56, 0x00, 0x00, 0xc8, 0x42, 0x00, 0x00, 0xb8, 0x3d, 0x00, 0x00,
//  0x38, 0x37, 0x00, 0x00, 0x08, 0x32, 0x00, 0x00, 0x98, 0x1e, 0x00, 0x00,
//  0x88, 0x19, 0x00, 0x00, 0xfc, 0x15, 0x00, 0x00, 0x44, 0x15, 0x00, 0x00,
//  0x00, 0xbe, 0x00, 0x00, 0xfc, 0xbd, 0x00, 0x00, 0xf8, 0xbd, 0x00, 0x00,
//  0xf4, 0xbd, 0x00, 0x00, 0xf0, 0xbd, 0x00, 0x00, 0xec, 0xbd, 0x00, 0x00,
//  0xe8, 0xbd, 0x00, 0x00, 0xe4, 0xbd, 0x00, 0x00, 0xe0, 0xbd, 0x00, 0x00,
//  0xdc, 0xbd, 0x00, 0x00, 0xd8, 0xbd, 0x00, 0x00, 0xd4, 0xbd, 0x00, 0x00,
//  0xd0, 0xbd, 0x00, 0x00, 0xcc, 0xbd, 0x00, 0x00, 0xc8, 0xbd, 0x00, 0x00,
//  0x3c, 0x00, 0x00, 0x00, 0x00, 0x00, 0x00, 0x00, 0x01, 0x00, 0x00, 0x00,
//  0x0c, 0x00, 0x00, 0x00, 0x08, 0x00, 0x0c, 0x00, 0x04, 0x00, 0x08, 0x00,
//  0x08, 0x00, 0x00, 0x00, 0x08, 0x00, 0x00, 0x00, 0x26, 0x00, 0x00, 0x00,
//  0x13, 0x00, 0x00, 0x00, 0x6d, 0x69, 0x6e, 0x5f, 0x72, 0x75, 0x6e, 0x74,
//  0x69, 0x6d, 0x65, 0x5f, 0x76, 0x65, 0x72, 0x73, 0x69, 0x6f, 0x6e, 0x00,
//  0x4e, 0x43, 0xff, 0xff, 0x04, 0x00, 0x00, 0x00, 0x10, 0x00, 0x00, 0x00,
//  0x31, 0x2e, 0x31, 0x34, 0x2e, 0x30, 0x00, 0x00, 0x00, 0x00, 0x00, 0x00,
//  0x00, 0x00, 0x00, 0x00, 0x0f, 0x00, 0x00, 0x00, 0x4d, 0x4c, 0x49, 0x52,
//  0x20, 0x43, 0x6f, 0x6e, 0x76, 0x65, 0x72, 0x74, 0x65, 0x64, 0x2e, 0x00,
//  0x00, 0x00, 0x0e, 0x00, 0x18, 0x00, 0x04, 0x00, 0x08, 0x00, 0x0c, 0x00,
//  0x10, 0x00, 0x14, 0x00, 0x0e, 0x00, 0x00, 0x00, 0x14, 0x00, 0x00, 0x00,
//  0xa8, 0x00, 0x00, 0x00, 0xac, 0x00, 0x00, 0x00, 0xb0, 0x00, 0x00, 0x00,
//  0xec, 0x00, 0x00, 0x00, 0x25, 0x00, 0x00, 0x00, 0xd8, 0xbc, 0x00, 0x00,
//  0x7c, 0xbc, 0x00, 0x00, 0x34, 0xb8, 0x00, 0x00, 0x28, 0xaa, 0x00, 0x00,
//  0xe8, 0xa4, 0x00, 0x00, 0x78, 0x9e, 0x00, 0x00, 0x08, 0x9a, 0x00, 0x00,
//  0xfc, 0x85, 0x00, 0x00, 0xb8, 0x80, 0x00, 0x00, 0x48, 0x7a, 0x00, 0x00,
//  0xd8, 0x75, 0x00, 0x00, 0xc8, 0x61, 0x00, 0x00, 0x88, 0x5c, 0x00, 0x00,
//  0x18, 0x56, 0x00, 0x00, 0xa8, 0x51, 0x00, 0x00, 0x98, 0x3d, 0x00, 0x00,
//  0x58, 0x38, 0x00, 0x00, 0xe8, 0x31, 0x00, 0x00, 0x78, 0x2d, 0x00, 0x00,
//  0x68, 0x19, 0x00, 0x00, 0xdc, 0x17, 0x00, 0x00, 0x54, 0x14, 0x00, 0x00,
//  0x98, 0x13, 0x00, 0x00, 0x00, 0x12, 0x00, 0x00, 0x1c, 0x10, 0x00, 0x00,
//  0x80, 0x0e, 0x00, 0x00, 0xb4, 0x0c, 0x00, 0x00, 0x24, 0x0b, 0x00, 0x00,
//  0x74, 0x09, 0x00, 0x00, 0xe4, 0x07, 0x00, 0x00, 0x34, 0x06, 0x00, 0x00,
//  0xa4, 0x04, 0x00, 0x00, 0xd0, 0x03, 0x00, 0x00, 0xf8, 0x02, 0x00, 0x00,
//  0xc4, 0x01, 0x00, 0x00, 0x18, 0x01, 0x00, 0x00, 0x90, 0x00, 0x00, 0x00,
//  0x01, 0x00, 0x00, 0x00, 0x00, 0x00, 0x00, 0x00, 0x01, 0x00, 0x00, 0x00,
//  0x24, 0x00, 0x00, 0x00, 0x0f, 0x00, 0x00, 0x00, 0xfc, 0x12, 0x00, 0x00,
//  0x4c, 0x11, 0x00, 0x00, 0x88, 0x0f, 0x00, 0x00, 0xd4, 0x0d, 0x00, 0x00,
//  0x20, 0x0c, 0x00, 0x00, 0x94, 0x0a, 0x00, 0x00, 0xe0, 0x08, 0x00, 0x00,
//  0x54, 0x07, 0x00, 0x00, 0xa0, 0x05, 0x00, 0x00, 0x14, 0x04, 0x00, 0x00,
//  0x20, 0x03, 0x00, 0x00, 0x74, 0x02, 0x00, 0x00, 0x30, 0x01, 0x00, 0x00,
//  0x88, 0x00, 0x00, 0x00, 0x10, 0x00, 0x00, 0x00, 0x04, 0x00, 0x00, 0x00,
//  0x6d, 0x61, 0x69, 0x6e, 0x00, 0x00, 0x00, 0x00, 0xb2, 0xfd, 0xff, 0xff,
//  0x07, 0x00, 0x00, 0x00, 0x10, 0x00, 0x00, 0x00, 0x04, 0x00, 0x00, 0x00,
//  0x01, 0x00, 0x00, 0x00, 0x24, 0x00, 0x00, 0x00, 0x01, 0x00, 0x00, 0x00,
//  0x23, 0x00, 0x00, 0x00, 0x50, 0xed, 0xff, 0xff, 0x06, 0x00, 0x00, 0x00,
//  0x00, 0x00, 0x00, 0x06, 0x02, 0x00, 0x00, 0x00, 0x5c, 0x44, 0xff, 0xff,
//  0x14, 0x00, 0x00, 0x00, 0x25, 0x00, 0x00, 0x00, 0x18, 0x00, 0x00, 0x00,
//  0x30, 0x00, 0x00, 0x00, 0x20, 0x00, 0x00, 0x00, 0x02, 0x00, 0x00, 0x00,
//  0x01, 0x00, 0x00, 0x00, 0x0c, 0x00, 0x00, 0x00, 0x08, 0x00, 0x00, 0x00,
//  0x49, 0x64, 0x65, 0x6e, 0x74, 0x69, 0x74, 0x79, 0x00, 0x00, 0x00, 0x00,
//  0x02, 0x00, 0x00, 0x00, 0xff, 0xff, 0xff, 0xff, 0x0c, 0x00, 0x00, 0x00,
//  0x38, 0x44, 0xff, 0xff, 0x3a, 0xf1, 0xff, 0xff, 0x00, 0x00, 0x00, 0x09,
//  0x06, 0x00, 0x00, 0x00, 0x1c, 0x00, 0x00, 0x00, 0x10, 0x00, 0x00, 0x00,
//  0x04, 0x00, 0x00, 0x00, 0x26, 0x45, 0xff, 0xff, 0x00, 0x00, 0x80, 0x3f,
//  0x01, 0x00, 0x00, 0x00, 0x23, 0x00, 0x00, 0x00, 0x01, 0x00, 0x00, 0x00,
//  0x22, 0x00, 0x00, 0x00, 0xd4, 0xed, 0xff, 0xff, 0x19, 0x00, 0x00, 0x00,
//  0x00, 0x00, 0x00, 0x19, 0x02, 0x00, 0x00, 0x00, 0xc8, 0xed, 0xff, 0xff,
//  0x00, 0x00, 0x00, 0x09, 0x14, 0x00, 0x00, 0x00, 0x24, 0x00, 0x00, 0x00,
//  0x18, 0x00, 0x00, 0x00, 0x30, 0x00, 0x00, 0x00, 0x20, 0x00, 0x00, 0x00,
//  0x02, 0x00, 0x00, 0x00, 0x01, 0x00, 0x00, 0x00, 0x0c, 0x00, 0x00, 0x00,
//  0x09, 0x00, 0x00, 0x00, 0x49, 0x64, 0x65, 0x6e, 0x74, 0x69, 0x74, 0x79,
//  0x31, 0x00, 0x00, 0x00, 0x02, 0x00, 0x00, 0x00, 0xff, 0xff, 0xff, 0xff,
//  0x0c, 0x00, 0x00, 0x00, 0xd8, 0x56, 0xff, 0xff, 0x08, 0x00, 0x00, 0x00,
//  0x0c, 0x00, 0x00, 0x00, 0x01, 0x00, 0x00, 0x00, 0x00, 0x00, 0x80, 0x3b,
//  0x01, 0x00, 0x00, 0x00, 0x80, 0xff, 0xff, 0xff, 0xff, 0xff, 0xff, 0xff,
//  0xde, 0xf1, 0xff, 0xff, 0x00, 0x00, 0x00, 0x08, 0x05, 0x00, 0x00, 0x00,
//  0x18, 0x00, 0x00, 0x00, 0x0c, 0x00, 0x00, 0x00, 0x04, 0x00, 0x00, 0x00,
//  0xf8, 0x44, 0xff, 0xff, 0x01, 0x00, 0x00, 0x00, 0x22, 0x00, 0x00, 0x00,
//  0x03, 0x00, 0x00, 0x00, 0x21, 0x00, 0x00, 0x00, 0x14, 0x00, 0x00, 0x00,
//  0x15, 0x00, 0x00, 0x00, 0x7c, 0xee, 0xff, 0xff, 0x09, 0x00, 0x00, 0x00,
//  0x00, 0x00, 0x00, 0x09, 0x04, 0x00, 0x00, 0x00, 0x70, 0xee, 0xff, 0xff,
//  0x00, 0x00, 0x00, 0x09, 0x14, 0x00, 0x00, 0x00, 0x23, 0x00, 0x00, 0x00,
//  0x18, 0x00, 0x00, 0x00, 0xb8, 0x00, 0x00, 0x00, 0xa8, 0x00, 0x00, 0x00,
//  0x02, 0x00, 0x00, 0x00, 0x01, 0x00, 0x00, 0x00, 0x0c, 0x00, 0x00, 0x00,
//  0x92, 0x00, 0x00, 0x00, 0x73, 0x65, 0x71, 0x75, 0x65, 0x6e, 0x74, 0x69,
//  0x61, 0x6c, 0x2f, 0x64, 0x65, 0x6e, 0x73, 0x65, 0x2f, 0x4d, 0x61, 0x74,
//  0x4d, 0x75, 0x6c, 0x3b, 0x73, 0x65, 0x71, 0x75, 0x65, 0x6e, 0x74, 0x69,
//  0x61, 0x6c, 0x2f, 0x64, 0x65, 0x6e, 0x73, 0x65, 0x2f, 0x42, 0x69, 0x61,
//  0x73, 0x41, 0x64, 0x64, 0x3b, 0x73, 0x65, 0x71, 0x75, 0x65, 0x6e, 0x74,
//  0x69, 0x61, 0x6c, 0x2f, 0x62, 0x61, 0x74, 0x63, 0x68, 0x5f, 0x6e, 0x6f,
//  0x72, 0x6d, 0x61, 0x6c, 0x69, 0x7a, 0x61, 0x74, 0x69, 0x6f, 0x6e, 0x5f,
//  0x39, 0x2f, 0x62, 0x61, 0x74, 0x63, 0x68, 0x6e, 0x6f, 0x72, 0x6d, 0x2f,
//  0x6d, 0x75, 0x6c, 0x5f, 0x31, 0x3b, 0x73, 0x65, 0x71, 0x75, 0x65, 0x6e,
//  0x74, 0x69, 0x61, 0x6c, 0x2f, 0x62, 0x61, 0x74, 0x63, 0x68, 0x5f, 0x6e,
//  0x6f, 0x72, 0x6d, 0x61, 0x6c, 0x69, 0x7a, 0x61, 0x74, 0x69, 0x6f, 0x6e,
//  0x5f, 0x39, 0x2f, 0x62, 0x61, 0x74, 0x63, 0x68, 0x6e, 0x6f, 0x72, 0x6d,
//  0x2f, 0x61, 0x64, 0x64, 0x5f, 0x31, 0x00, 0x00, 0x02, 0x00, 0x00, 0x00,
//  0xff, 0xff, 0xff, 0xff, 0x0c, 0x00, 0x00, 0x00, 0x08, 0x58, 0xff, 0xff,
//  0x08, 0x00, 0x00, 0x00, 0x0c, 0x00, 0x00, 0x00, 0x01, 0x00, 0x00, 0x00,
//  0xed, 0xf5, 0xd0, 0x3e, 0x01, 0x00, 0x00, 0x00, 0x01, 0x00, 0x00, 0x00,
//  0x00, 0x00, 0x00, 0x00, 0x00, 0x00, 0x00, 0x00, 0x00, 0x00, 0x0a, 0x00,
//  0x10, 0x00, 0x04, 0x00, 0x08, 0x00, 0x0c, 0x00, 0x0a, 0x00, 0x00, 0x00,
//  0x04, 0x00, 0x00, 0x00, 0x10, 0x00, 0x00, 0x00, 0x04, 0x00, 0x00, 0x00,
//  0x01, 0x00, 0x00, 0x00, 0x21, 0x00, 0x00, 0x00, 0x02, 0x00, 0x00, 0x00,
//  0x20, 0x00, 0x00, 0x00, 0x01, 0x00, 0x00, 0x00, 0xac, 0xef, 0xff, 0xff,
//  0x16, 0x00, 0x00, 0x00, 0x00, 0x00, 0x00, 0x16, 0x01, 0x00, 0x00, 0x00,
//  0xa0, 0xef, 0xff, 0xff, 0x00, 0x00, 0x00, 0x09, 0x14, 0x00, 0x00, 0x00,
//  0x22, 0x00, 0x00, 0x00, 0x18, 0x00, 0x00, 0x00, 0x40, 0x00, 0x00, 0x00,
//  0x30, 0x00, 0x00, 0x00, 0x02, 0x00, 0x00, 0x00, 0x01, 0x00, 0x00, 0x00,
//  0x40, 0x00, 0x00, 0x00, 0x1a, 0x00, 0x00, 0x00, 0x73, 0x65, 0x71, 0x75,
//  0x65, 0x6e, 0x74, 0x69, 0x61, 0x6c, 0x2f, 0x66, 0x6c, 0x61, 0x74, 0x74,
//  0x65, 0x6e, 0x2f, 0x52, 0x65, 0x73, 0x68, 0x61, 0x70, 0x65, 0x00, 0x00,
//  0x02, 0x00, 0x00, 0x00, 0xff, 0xff, 0xff, 0xff, 0x40, 0x00, 0x00, 0x00,
//  0xc0, 0x58, 0xff, 0xff, 0x08, 0x00, 0x00, 0x00, 0x0c, 0x00, 0x00, 0x00,
//  0x01, 0x00, 0x00, 0x00, 0x92, 0xf7, 0x91, 0x3d, 0x01, 0x00, 0x00, 0x00,
//  0x80, 0xff, 0xff, 0xff, 0xff, 0xff, 0xff, 0xff, 0x06, 0xf2, 0xff, 0xff,
//  0x00, 0x00, 0x00, 0x05, 0x03, 0x00, 0x00, 0x00, 0x3c, 0x00, 0x00, 0x00,
//  0x30, 0x00, 0x00, 0x00, 0x14, 0x00, 0x00, 0x00, 0x00, 0x00, 0x0e, 0x00,
//  0x18, 0x00, 0x0f, 0x00, 0x04, 0x00, 0x08, 0x00, 0x10, 0x00, 0x14, 0x00,
//  0x0e, 0x00, 0x00, 0x00, 0x02, 0x00, 0x00, 0x00, 0x02, 0x00, 0x00, 0x00,
//  0x00, 0x00, 0x00, 0x01, 0x05, 0x00, 0x00, 0x00, 0x19, 0x00, 0x00, 0x00,
//  0x01, 0x00, 0x00, 0x00, 0x20, 0x00, 0x00, 0x00, 0x01, 0x00, 0x00, 0x00,
//  0x1f, 0x00, 0x00, 0x00, 0x80, 0xf0, 0xff, 0xff, 0x01, 0x00, 0x00, 0x00,
//  0x00, 0x00, 0x00, 0x01, 0x02, 0x00, 0x00, 0x00, 0x74, 0xf0, 0xff, 0xff,
//  0x00, 0x00, 0x00, 0x09, 0x14, 0x00, 0x00, 0x00, 0x21, 0x00, 0x00, 0x00,
//  0x20, 0x00, 0x00, 0x00, 0x5c, 0x00, 0x00, 0x00, 0x44, 0x00, 0x00, 0x00,
//  0x04, 0x00, 0x00, 0x00, 0x01, 0x00, 0x00, 0x00, 0x01, 0x00, 0x00, 0x00,
//  0x01, 0x00, 0x00, 0x00, 0x40, 0x00, 0x00, 0x00, 0x24, 0x00, 0x00, 0x00,
//  0x73, 0x65, 0x71, 0x75, 0x65, 0x6e, 0x74, 0x69, 0x61, 0x6c, 0x2f, 0x61,
//  0x76, 0x65, 0x72, 0x61, 0x67, 0x65, 0x5f, 0x70, 0x6f, 0x6f, 0x6c, 0x69,
//  0x6e, 0x67, 0x32, 0x64, 0x2f, 0x41, 0x76, 0x67, 0x50, 0x6f, 0x6f, 0x6c,
//  0x00, 0x00, 0x00, 0x00, 0x04, 0x00, 0x00, 0x00, 0xff, 0xff, 0xff, 0xff,
//  0x01, 0x00, 0x00, 0x00, 0x01, 0x00, 0x00, 0x00, 0x40, 0x00, 0x00, 0x00,
//  0xb0, 0x59, 0xff, 0xff, 0x08, 0x00, 0x00, 0x00, 0x0c, 0x00, 0x00, 0x00,
//  0x01, 0x00, 0x00, 0x00, 0x92, 0xf7, 0x91, 0x3d, 0x01, 0x00, 0x00, 0x00,
//  0x80, 0xff, 0xff, 0xff, 0xff, 0xff, 0xff, 0xff, 0xb6, 0xf4, 0xff, 0xff,
//  0x00, 0x00, 0x00, 0x01, 0x02, 0x00, 0x00, 0x00, 0x24, 0x00, 0x00, 0x00,
//  0x18, 0x00, 0x00, 0x00, 0x04, 0x00, 0x00, 0x00, 0x58, 0xf6, 0xff, 0xff,
//  0x01, 0x00, 0x00, 0x00, 0x01, 0x00, 0x00, 0x00, 0x00, 0x00, 0x00, 0x01,
//  0x01, 0x00, 0x00, 0x00, 0x1f, 0x00, 0x00, 0x00, 0x03, 0x00, 0x00, 0x00,
//  0x1e, 0x00, 0x00, 0x00, 0x12, 0x00, 0x00, 0x00, 0x13, 0x00, 0x00, 0x00,
//  0x44, 0xf1, 0xff, 0xff, 0x00, 0x00, 0x00, 0x09, 0x14, 0x00, 0x00, 0x00,
//  0x20, 0x00, 0x00, 0x00, 0x20, 0x00, 0x00, 0x00, 0x14, 0x01, 0x00, 0x00,
//  0xfc, 0x00, 0x00, 0x00, 0x04, 0x00, 0x00, 0x00, 0x01, 0x00, 0x00, 0x00,
//  0x19, 0x00, 0x00, 0x00, 0x05, 0x00, 0x00, 0x00, 0x40, 0x00, 0x00, 0x00,
//  0xdf, 0x00, 0x00, 0x00, 0x73, 0x65, 0x71, 0x75, 0x65, 0x6e, 0x74, 0x69,
//  0x61, 0x6c, 0x2f, 0x61, 0x63, 0x74, 0x69, 0x76, 0x61, 0x74, 0x69, 0x6f,
//  0x6e, 0x5f, 0x38, 0x2f, 0x52, 0x65, 0x6c, 0x75, 0x3b, 0x73, 0x65, 0x71,
//  0x75, 0x65, 0x6e, 0x74, 0x69, 0x61, 0x6c, 0x2f, 0x62, 0x61, 0x74, 0x63,
//  0x68, 0x5f, 0x6e, 0x6f, 0x72, 0x6d, 0x61, 0x6c, 0x69, 0x7a, 0x61, 0x74,
//  0x69, 0x6f, 0x6e, 0x5f, 0x38, 0x2f, 0x46, 0x75, 0x73, 0x65, 0x64, 0x42,
//  0x61, 0x74, 0x63, 0x68, 0x4e, 0x6f, 0x72, 0x6d, 0x56, 0x33, 0x3b, 0x73,
//  0x65, 0x71, 0x75, 0x65, 0x6e, 0x74, 0x69, 0x61, 0x6c, 0x2f, 0x63, 0x6f,
//  0x6e, 0x76, 0x32, 0x64, 0x5f, 0x33, 0x2f, 0x42, 0x69, 0x61, 0x73, 0x41,
//  0x64, 0x64, 0x2f, 0x52, 0x65, 0x61, 0x64, 0x56, 0x61, 0x72, 0x69, 0x61,
//  0x62, 0x6c, 0x65, 0x4f, 0x70, 0x2f, 0x72, 0x65, 0x73, 0x6f, 0x75, 0x72,
//  0x63, 0x65, 0x3b, 0x73, 0x65, 0x71, 0x75, 0x65, 0x6e, 0x74, 0x69, 0x61,
//  0x6c, 0x2f, 0x63, 0x6f, 0x6e, 0x76, 0x32, 0x64, 0x5f, 0x33, 0x2f, 0x42,
//  0x69, 0x61, 0x73, 0x41, 0x64, 0x64, 0x3b, 0x73, 0x65, 0x71, 0x75, 0x65,
//  0x6e, 0x74, 0x69, 0x61, 0x6c, 0x2f, 0x64, 0x65, 0x70, 0x74, 0x68, 0x77,
//  0x69, 0x73, 0x65, 0x5f, 0x63, 0x6f, 0x6e, 0x76, 0x32, 0x64, 0x2f, 0x64,
//  0x65, 0x70, 0x74, 0x68, 0x77, 0x69, 0x73, 0x65, 0x3b, 0x73, 0x65, 0x71,
//  0x75, 0x65, 0x6e, 0x74, 0x69, 0x61, 0x6c, 0x2f, 0x63, 0x6f, 0x6e, 0x76,
//  0x32, 0x64, 0x5f, 0x33, 0x2f, 0x43, 0x6f, 0x6e, 0x76, 0x32, 0x44, 0x00,
//  0x04, 0x00, 0x00, 0x00, 0xff, 0xff, 0xff, 0xff, 0x19, 0x00, 0x00, 0x00,
//  0x05, 0x00, 0x00, 0x00, 0x40, 0x00, 0x00, 0x00, 0x38, 0x5b, 0xff, 0xff,
//  0x08, 0x00, 0x00, 0x00, 0x0c, 0x00, 0x00, 0x00, 0x01, 0x00, 0x00, 0x00,
//  0x92, 0xf7, 0x91, 0x3d, 0x01, 0x00, 0x00, 0x00, 0x80, 0xff, 0xff, 0xff,
//  0xff, 0xff, 0xff, 0xff, 0x3e, 0xf6, 0xff, 0xff, 0x00, 0x00, 0x00, 0x02,
//  0x01, 0x00, 0x00, 0x00, 0x28, 0x00, 0x00, 0x00, 0x1c, 0x00, 0x00, 0x00,
//  0x04, 0x00, 0x00, 0x00, 0x6e, 0xf4, 0xff, 0xff, 0x01, 0x00, 0x00, 0x00,
//  0x01, 0x00, 0x00, 0x00, 0x01, 0x00, 0x00, 0x00, 0x00, 0x00, 0x00, 0x01,
//  0x01, 0x00, 0x00, 0x00, 0x1e, 0x00, 0x00, 0x00, 0x03, 0x00, 0x00, 0x00,
//  0x1d, 0x00, 0x00, 0x00, 0x10, 0x00, 0x00, 0x00, 0x11, 0x00, 0x00, 0x00,
//  0xd0, 0xf2, 0xff, 0xff, 0x00, 0x00, 0x00, 0x09, 0x14, 0x00, 0x00, 0x00,
//  0x1f, 0x00, 0x00, 0x00, 0x20, 0x00, 0x00, 0x00, 0x38, 0x01, 0x00, 0x00,
//  0x20, 0x01, 0x00, 0x00, 0x04, 0x00, 0x00, 0x00, 0x01, 0x00, 0x00, 0x00,
//  0x19, 0x00, 0x00, 0x00, 0x05, 0x00, 0x00, 0x00, 0x40, 0x00, 0x00, 0x00,
//  0x00, 0x01, 0x00, 0x00, 0x73, 0x65, 0x71, 0x75, 0x65, 0x6e, 0x74, 0x69,
//  0x61, 0x6c, 0x2f, 0x61, 0x63, 0x74, 0x69, 0x76, 0x61, 0x74, 0x69, 0x6f,
//  0x6e, 0x5f, 0x37, 0x2f, 0x52, 0x65, 0x6c, 0x75, 0x3b, 0x73, 0x65, 0x71,
//  0x75, 0x65, 0x6e, 0x74, 0x69, 0x61, 0x6c, 0x2f, 0x62, 0x61, 0x74, 0x63,
//  0x68, 0x5f, 0x6e, 0x6f, 0x72, 0x6d, 0x61, 0x6c, 0x69, 0x7a, 0x61, 0x74,
//  0x69, 0x6f, 0x6e, 0x5f, 0x37, 0x2f, 0x46, 0x75, 0x73, 0x65, 0x64, 0x42,
//  0x61, 0x74, 0x63, 0x68, 0x4e, 0x6f, 0x72, 0x6d, 0x56, 0x33, 0x3b, 0x73,
//  0x65, 0x71, 0x75, 0x65, 0x6e, 0x74, 0x69, 0x61, 0x6c, 0x2f, 0x64, 0x65,
//  0x70, 0x74, 0x68, 0x77, 0x69, 0x73, 0x65, 0x5f, 0x63, 0x6f, 0x6e, 0x76,
//  0x32, 0x64, 0x5f, 0x34, 0x2f, 0x64, 0x65, 0x70, 0x74, 0x68, 0x77, 0x69,
//  0x73, 0x65, 0x3b, 0x73, 0x65, 0x71, 0x75, 0x65, 0x6e, 0x74, 0x69, 0x61,
//  0x6c, 0x2f, 0x64, 0x65, 0x70, 0x74, 0x68, 0x77, 0x69, 0x73, 0x65, 0x5f,
//  0x63, 0x6f, 0x6e, 0x76, 0x32, 0x64, 0x5f, 0x34, 0x2f, 0x42, 0x69, 0x61,
//  0x73, 0x41, 0x64, 0x64, 0x3b, 0x73, 0x65, 0x71, 0x75, 0x65, 0x6e, 0x74,
//  0x69, 0x61, 0x6c, 0x2f, 0x64, 0x65, 0x70, 0x74, 0x68, 0x77, 0x69, 0x73,
//  0x65, 0x5f, 0x63, 0x6f, 0x6e, 0x76, 0x32, 0x64, 0x2f, 0x64, 0x65, 0x70,
//  0x74, 0x68, 0x77, 0x69, 0x73, 0x65, 0x3b, 0x73, 0x65, 0x71, 0x75, 0x65,
//  0x6e, 0x74, 0x69, 0x61, 0x6c, 0x2f, 0x64, 0x65, 0x70, 0x74, 0x68, 0x77,
//  0x69, 0x73, 0x65, 0x5f, 0x63, 0x6f, 0x6e, 0x76, 0x32, 0x64, 0x5f, 0x34,
//  0x2f, 0x42, 0x69, 0x61, 0x73, 0x41, 0x64, 0x64, 0x2f, 0x52, 0x65, 0x61,
//  0x64, 0x56, 0x61, 0x72, 0x69, 0x61, 0x62, 0x6c, 0x65, 0x4f, 0x70, 0x2f,
//  0x72, 0x65, 0x73, 0x6f, 0x75, 0x72, 0x63, 0x65, 0x00, 0x00, 0x00, 0x00,
//  0x04, 0x00, 0x00, 0x00, 0xff, 0xff, 0xff, 0xff, 0x19, 0x00, 0x00, 0x00,
//  0x05, 0x00, 0x00, 0x00, 0x40, 0x00, 0x00, 0x00, 0xe8, 0x5c, 0xff, 0xff,
//  0x08, 0x00, 0x00, 0x00, 0x0c, 0x00, 0x00, 0x00, 0x01, 0x00, 0x00, 0x00,
//  0x21, 0x8f, 0xa2, 0x3d, 0x01, 0x00, 0x00, 0x00, 0x80, 0xff, 0xff, 0xff,
//  0xff, 0xff, 0xff, 0xff, 0xee, 0xf7, 0xff, 0xff, 0x00, 0x00, 0x00, 0x01,
//  0x02, 0x00, 0x00, 0x00, 0x24, 0x00, 0x00, 0x00, 0x18, 0x00, 0x00, 0x00,
//  0x04, 0x00, 0x00, 0x00, 0x90, 0xf9, 0xff, 0xff, 0x01, 0x00, 0x00, 0x00,
//  0x01, 0x00, 0x00, 0x00, 0x00, 0x00, 0x00, 0x01, 0x01, 0x00, 0x00, 0x00,
//  0x1d, 0x00, 0x00, 0x00, 0x03, 0x00, 0x00, 0x00, 0x1c, 0x00, 0x00, 0x00,
//  0x0e, 0x00, 0x00, 0x00, 0x0f, 0x00, 0x00, 0x00, 0x7c, 0xf4, 0xff, 0xff,
//  0x00, 0x00, 0x00, 0x09, 0x14, 0x00, 0x00, 0x00, 0x1e, 0x00, 0x00, 0x00,
//  0x20, 0x00, 0x00, 0x00, 0x14, 0x01, 0x00, 0x00, 0xfc, 0x00, 0x00, 0x00,
//  0x04, 0x00, 0x00, 0x00, 0x01, 0x00, 0x00, 0x00, 0x19, 0x00, 0x00, 0x00,
//  0x05, 0x00, 0x00, 0x00, 0x40, 0x00, 0x00, 0x00, 0xdf, 0x00, 0x00, 0x00,
//  0x73, 0x65, 0x71, 0x75, 0x65, 0x6e, 0x74, 0x69, 0x61, 0x6c, 0x2f, 0x61,
//  0x63, 0x74, 0x69, 0x76, 0x61, 0x74, 0x69, 0x6f, 0x6e, 0x5f, 0x36, 0x2f,
//  0x52, 0x65, 0x6c, 0x75, 0x3b, 0x73, 0x65, 0x71, 0x75, 0x65, 0x6e, 0x74,
//  0x69, 0x61, 0x6c, 0x2f, 0x62, 0x61, 0x74, 0x63, 0x68, 0x5f, 0x6e, 0x6f,
//  0x72, 0x6d, 0x61, 0x6c, 0x69, 0x7a, 0x61, 0x74, 0x69, 0x6f, 0x6e, 0x5f,
//  0x36, 0x2f, 0x46, 0x75, 0x73, 0x65, 0x64, 0x42, 0x61, 0x74, 0x63, 0x68,
//  0x4e, 0x6f, 0x72, 0x6d, 0x56, 0x33, 0x3b, 0x73, 0x65, 0x71, 0x75, 0x65,
//  0x6e, 0x74, 0x69, 0x61, 0x6c, 0x2f, 0x63, 0x6f, 0x6e, 0x76, 0x32, 0x64,
//  0x5f, 0x32, 0x2f, 0x42, 0x69, 0x61, 0x73, 0x41, 0x64, 0x64, 0x2f, 0x52,
//  0x65, 0x61, 0x64, 0x56, 0x61, 0x72, 0x69, 0x61, 0x62, 0x6c, 0x65, 0x4f,
//  0x70, 0x2f, 0x72, 0x65, 0x73, 0x6f, 0x75, 0x72, 0x63, 0x65, 0x3b, 0x73,
//  0x65, 0x71, 0x75, 0x65, 0x6e, 0x74, 0x69, 0x61, 0x6c, 0x2f, 0x63, 0x6f,
//  0x6e, 0x76, 0x32, 0x64, 0x5f, 0x32, 0x2f, 0x42, 0x69, 0x61, 0x73, 0x41,
//  0x64, 0x64, 0x3b, 0x73, 0x65, 0x71, 0x75, 0x65, 0x6e, 0x74, 0x69, 0x61,
//  0x6c, 0x2f, 0x64, 0x65, 0x70, 0x74, 0x68, 0x77, 0x69, 0x73, 0x65, 0x5f,
//  0x63, 0x6f, 0x6e, 0x76, 0x32, 0x64, 0x2f, 0x64, 0x65, 0x70, 0x74, 0x68,
//  0x77, 0x69, 0x73, 0x65, 0x3b, 0x73, 0x65, 0x71, 0x75, 0x65, 0x6e, 0x74,
//  0x69, 0x61, 0x6c, 0x2f, 0x63, 0x6f, 0x6e, 0x76, 0x32, 0x64, 0x5f, 0x32,
//  0x2f, 0x43, 0x6f, 0x6e, 0x76, 0x32, 0x44, 0x00, 0x04, 0x00, 0x00, 0x00,
//  0xff, 0xff, 0xff, 0xff, 0x19, 0x00, 0x00, 0x00, 0x05, 0x00, 0x00, 0x00,
//  0x40, 0x00, 0x00, 0x00, 0x70, 0x5e, 0xff, 0xff, 0x08, 0x00, 0x00, 0x00,
//  0x0c, 0x00, 0x00, 0x00, 0x01, 0x00, 0x00, 0x00, 0x0d, 0x01, 0xe9, 0x3d,
//  0x01, 0x00, 0x00, 0x00, 0x80, 0xff, 0xff, 0xff, 0xff, 0xff, 0xff, 0xff,
//  0x76, 0xf9, 0xff, 0xff, 0x00, 0x00, 0x00, 0x02, 0x01, 0x00, 0x00, 0x00,
//  0x28, 0x00, 0x00, 0x00, 0x1c, 0x00, 0x00, 0x00, 0x04, 0x00, 0x00, 0x00,
//  0xa6, 0xf7, 0xff, 0xff, 0x01, 0x00, 0x00, 0x00, 0x01, 0x00, 0x00, 0x00,
//  0x01, 0x00, 0x00, 0x00, 0x00, 0x00, 0x00, 0x01, 0x01, 0x00, 0x00, 0x00,
//  0x1c, 0x00, 0x00, 0x00, 0x03, 0x00, 0x00, 0x00, 0x1b, 0x00, 0x00, 0x00,
//  0x0c, 0x00, 0x00, 0x00, 0x0d, 0x00, 0x00, 0x00, 0x08, 0xf6, 0xff, 0xff,
//  0x00, 0x00, 0x00, 0x09, 0x14, 0x00, 0x00, 0x00, 0x1d, 0x00, 0x00, 0x00,
//  0x20, 0x00, 0x00, 0x00, 0x38, 0x01, 0x00, 0x00, 0x20, 0x01, 0x00, 0x00,
//  0x04, 0x00, 0x00, 0x00, 0x01, 0x00, 0x00, 0x00, 0x19, 0x00, 0x00, 0x00,
//  0x05, 0x00, 0x00, 0x00, 0x40, 0x00, 0x00, 0x00, 0x00, 0x01, 0x00, 0x00,
//  0x73, 0x65, 0x71, 0x75, 0x65, 0x6e, 0x74, 0x69, 0x61, 0x6c, 0x2f, 0x61,
//  0x63, 0x74, 0x69, 0x76, 0x61, 0x74, 0x69, 0x6f, 0x6e, 0x5f, 0x35, 0x2f,
//  0x52, 0x65, 0x6c, 0x75, 0x3b, 0x73, 0x65, 0x71, 0x75, 0x65, 0x6e, 0x74,
//  0x69, 0x61, 0x6c, 0x2f, 0x62, 0x61, 0x74, 0x63, 0x68, 0x5f, 0x6e, 0x6f,
//  0x72, 0x6d, 0x61, 0x6c, 0x69, 0x7a, 0x61, 0x74, 0x69, 0x6f, 0x6e, 0x5f,
//  0x35, 0x2f, 0x46, 0x75, 0x73, 0x65, 0x64, 0x42, 0x61, 0x74, 0x63, 0x68,
//  0x4e, 0x6f, 0x72, 0x6d, 0x56, 0x33, 0x3b, 0x73, 0x65, 0x71, 0x75, 0x65,
//  0x6e, 0x74, 0x69, 0x61, 0x6c, 0x2f, 0x64, 0x65, 0x70, 0x74, 0x68, 0x77,
//  0x69, 0x73, 0x65, 0x5f, 0x63, 0x6f, 0x6e, 0x76, 0x32, 0x64, 0x5f, 0x33,
//  0x2f, 0x64, 0x65, 0x70, 0x74, 0x68, 0x77, 0x69, 0x73, 0x65, 0x3b, 0x73,
//  0x65, 0x71, 0x75, 0x65, 0x6e, 0x74, 0x69, 0x61, 0x6c, 0x2f, 0x64, 0x65,
//  0x70, 0x74, 0x68, 0x77, 0x69, 0x73, 0x65, 0x5f, 0x63, 0x6f, 0x6e, 0x76,
//  0x32, 0x64, 0x5f, 0x33, 0x2f, 0x42, 0x69, 0x61, 0x73, 0x41, 0x64, 0x64,
//  0x3b, 0x73, 0x65, 0x71, 0x75, 0x65, 0x6e, 0x74, 0x69, 0x61, 0x6c, 0x2f,
//  0x64, 0x65, 0x70, 0x74, 0x68, 0x77, 0x69, 0x73, 0x65, 0x5f, 0x63, 0x6f,
//  0x6e, 0x76, 0x32, 0x64, 0x2f, 0x64, 0x65, 0x70, 0x74, 0x68, 0x77, 0x69,
//  0x73, 0x65, 0x3b, 0x73, 0x65, 0x71, 0x75, 0x65, 0x6e, 0x74, 0x69, 0x61,
//  0x6c, 0x2f, 0x64, 0x65, 0x70, 0x74, 0x68, 0x77, 0x69, 0x73, 0x65, 0x5f,
//  0x63, 0x6f, 0x6e, 0x76, 0x32, 0x64, 0x5f, 0x33, 0x2f, 0x42, 0x69, 0x61,
//  0x73, 0x41, 0x64, 0x64, 0x2f, 0x52, 0x65, 0x61, 0x64, 0x56, 0x61, 0x72,
//  0x69, 0x61, 0x62, 0x6c, 0x65, 0x4f, 0x70, 0x2f, 0x72, 0x65, 0x73, 0x6f,
//  0x75, 0x72, 0x63, 0x65, 0x00, 0x00, 0x00, 0x00, 0x04, 0x00, 0x00, 0x00,
//  0xff, 0xff, 0xff, 0xff, 0x19, 0x00, 0x00, 0x00, 0x05, 0x00, 0x00, 0x00,
//  0x40, 0x00, 0x00, 0x00, 0x20, 0x60, 0xff, 0xff, 0x08, 0x00, 0x00, 0x00,
//  0x0c, 0x00, 0x00, 0x00, 0x01, 0x00, 0x00, 0x00, 0x41, 0x39, 0xe1, 0x3d,
//  0x01, 0x00, 0x00, 0x00, 0x80, 0xff, 0xff, 0xff, 0xff, 0xff, 0xff, 0xff,
//  0x26, 0xfb, 0xff, 0xff, 0x00, 0x00, 0x00, 0x01, 0x02, 0x00, 0x00, 0x00,
//  0x24, 0x00, 0x00, 0x00, 0x18, 0x00, 0x00, 0x00, 0x04, 0x00, 0x00, 0x00,
//  0xc8, 0xfc, 0xff, 0xff, 0x01, 0x00, 0x00, 0x00, 0x01, 0x00, 0x00, 0x00,
//  0x00, 0x00, 0x00, 0x01, 0x01, 0x00, 0x00, 0x00, 0x1b, 0x00, 0x00, 0x00,
//  0x03, 0x00, 0x00, 0x00, 0x1a, 0x00, 0x00, 0x00, 0x0a, 0x00, 0x00, 0x00,
//  0x0b, 0x00, 0x00, 0x00, 0xb4, 0xf7, 0xff, 0xff, 0x00, 0x00, 0x00, 0x09,
//  0x14, 0x00, 0x00, 0x00, 0x1c, 0x00, 0x00, 0x00, 0x20, 0x00, 0x00, 0x00,
//  0x14, 0x01, 0x00, 0x00, 0xfc, 0x00, 0x00, 0x00, 0x04, 0x00, 0x00, 0x00,
//  0x01, 0x00, 0x00, 0x00, 0x19, 0x00, 0x00, 0x00, 0x05, 0x00, 0x00, 0x00,
//  0x40, 0x00, 0x00, 0x00, 0xdf, 0x00, 0x00, 0x00, 0x73, 0x65, 0x71, 0x75,
//  0x65, 0x6e, 0x74, 0x69, 0x61, 0x6c, 0x2f, 0x61, 0x63, 0x74, 0x69, 0x76,
//  0x61, 0x74, 0x69, 0x6f, 0x6e, 0x5f, 0x34, 0x2f, 0x52, 0x65, 0x6c, 0x75,
//  0x3b, 0x73, 0x65, 0x71, 0x75, 0x65, 0x6e, 0x74, 0x69, 0x61, 0x6c, 0x2f,
//  0x62, 0x61, 0x74, 0x63, 0x68, 0x5f, 0x6e, 0x6f, 0x72, 0x6d, 0x61, 0x6c,
//  0x69, 0x7a, 0x61, 0x74, 0x69, 0x6f, 0x6e, 0x5f, 0x34, 0x2f, 0x46, 0x75,
//  0x73, 0x65, 0x64, 0x42, 0x61, 0x74, 0x63, 0x68, 0x4e, 0x6f, 0x72, 0x6d,
//  0x56, 0x33, 0x3b, 0x73, 0x65, 0x71, 0x75, 0x65, 0x6e, 0x74, 0x69, 0x61,
//  0x6c, 0x2f, 0x63, 0x6f, 0x6e, 0x76, 0x32, 0x64, 0x5f, 0x31, 0x2f, 0x42,
//  0x69, 0x61, 0x73, 0x41, 0x64, 0x64, 0x2f, 0x52, 0x65, 0x61, 0x64, 0x56,
//  0x61, 0x72, 0x69, 0x61, 0x62, 0x6c, 0x65, 0x4f, 0x70, 0x2f, 0x72, 0x65,
//  0x73, 0x6f, 0x75, 0x72, 0x63, 0x65, 0x3b, 0x73, 0x65, 0x71, 0x75, 0x65,
//  0x6e, 0x74, 0x69, 0x61, 0x6c, 0x2f, 0x63, 0x6f, 0x6e, 0x76, 0x32, 0x64,
//  0x5f, 0x31, 0x2f, 0x42, 0x69, 0x61, 0x73, 0x41, 0x64, 0x64, 0x3b, 0x73,
//  0x65, 0x71, 0x75, 0x65, 0x6e, 0x74, 0x69, 0x61, 0x6c, 0x2f, 0x64, 0x65,
//  0x70, 0x74, 0x68, 0x77, 0x69, 0x73, 0x65, 0x5f, 0x63, 0x6f, 0x6e, 0x76,
//  0x32, 0x64, 0x2f, 0x64, 0x65, 0x70, 0x74, 0x68, 0x77, 0x69, 0x73, 0x65,
//  0x3b, 0x73, 0x65, 0x71, 0x75, 0x65, 0x6e, 0x74, 0x69, 0x61, 0x6c, 0x2f,
//  0x63, 0x6f, 0x6e, 0x76, 0x32, 0x64, 0x5f, 0x31, 0x2f, 0x43, 0x6f, 0x6e,
//  0x76, 0x32, 0x44, 0x00, 0x04, 0x00, 0x00, 0x00, 0xff, 0xff, 0xff, 0xff,
//  0x19, 0x00, 0x00, 0x00, 0x05, 0x00, 0x00, 0x00, 0x40, 0x00, 0x00, 0x00,
//  0xa8, 0x61, 0xff, 0xff, 0x08, 0x00, 0x00, 0x00, 0x0c, 0x00, 0x00, 0x00,
//  0x01, 0x00, 0x00, 0x00, 0x0e, 0xc2, 0xdd, 0x3d, 0x01, 0x00, 0x00, 0x00,
//  0x80, 0xff, 0xff, 0xff, 0xff, 0xff, 0xff, 0xff, 0xae, 0xfc, 0xff, 0xff,
//  0x00, 0x00, 0x00, 0x02, 0x01, 0x00, 0x00, 0x00, 0x28, 0x00, 0x00, 0x00,
//  0x1c, 0x00, 0x00, 0x00, 0x04, 0x00, 0x00, 0x00, 0xde, 0xfa, 0xff, 0xff,
//  0x01, 0x00, 0x00, 0x00, 0x01, 0x00, 0x00, 0x00, 0x01, 0x00, 0x00, 0x00,
//  0x00, 0x00, 0x00, 0x01, 0x01, 0x00, 0x00, 0x00, 0x1a, 0x00, 0x00, 0x00,
//  0x03, 0x00, 0x00, 0x00, 0x19, 0x00, 0x00, 0x00, 0x08, 0x00, 0x00, 0x00,
//  0x09, 0x00, 0x00, 0x00, 0x40, 0xf9, 0xff, 0xff, 0x00, 0x00, 0x00, 0x09,
//  0x14, 0x00, 0x00, 0x00, 0x1b, 0x00, 0x00, 0x00, 0x20, 0x00, 0x00, 0x00,
//  0x38, 0x01, 0x00, 0x00, 0x20, 0x01, 0x00, 0x00, 0x04, 0x00, 0x00, 0x00,
//  0x01, 0x00, 0x00, 0x00, 0x19, 0x00, 0x00, 0x00, 0x05, 0x00, 0x00, 0x00,
//  0x40, 0x00, 0x00, 0x00, 0x00, 0x01, 0x00, 0x00, 0x73, 0x65, 0x71, 0x75,
//  0x65, 0x6e, 0x74, 0x69, 0x61, 0x6c, 0x2f, 0x61, 0x63, 0x74, 0x69, 0x76,
//  0x61, 0x74, 0x69, 0x6f, 0x6e, 0x5f, 0x33, 0x2f, 0x52, 0x65, 0x6c, 0x75,
//  0x3b, 0x73, 0x65, 0x71, 0x75, 0x65, 0x6e, 0x74, 0x69, 0x61, 0x6c, 0x2f,
//  0x62, 0x61, 0x74, 0x63, 0x68, 0x5f, 0x6e, 0x6f, 0x72, 0x6d, 0x61, 0x6c,
//  0x69, 0x7a, 0x61, 0x74, 0x69, 0x6f, 0x6e, 0x5f, 0x33, 0x2f, 0x46, 0x75,
//  0x73, 0x65, 0x64, 0x42, 0x61, 0x74, 0x63, 0x68, 0x4e, 0x6f, 0x72, 0x6d,
//  0x56, 0x33, 0x3b, 0x73, 0x65, 0x71, 0x75, 0x65, 0x6e, 0x74, 0x69, 0x61,
//  0x6c, 0x2f, 0x64, 0x65, 0x70, 0x74, 0x68, 0x77, 0x69, 0x73, 0x65, 0x5f,
//  0x63, 0x6f, 0x6e, 0x76, 0x32, 0x64, 0x5f, 0x32, 0x2f, 0x64, 0x65, 0x70,
//  0x74, 0x68, 0x77, 0x69, 0x73, 0x65, 0x3b, 0x73, 0x65, 0x71, 0x75, 0x65,
//  0x6e, 0x74, 0x69, 0x61, 0x6c, 0x2f, 0x64, 0x65, 0x70, 0x74, 0x68, 0x77,
//  0x69, 0x73, 0x65, 0x5f, 0x63, 0x6f, 0x6e, 0x76, 0x32, 0x64, 0x5f, 0x32,
//  0x2f, 0x42, 0x69, 0x61, 0x73, 0x41, 0x64, 0x64, 0x3b, 0x73, 0x65, 0x71,
//  0x75, 0x65, 0x6e, 0x74, 0x69, 0x61, 0x6c, 0x2f, 0x64, 0x65, 0x70, 0x74,
//  0x68, 0x77, 0x69, 0x73, 0x65, 0x5f, 0x63, 0x6f, 0x6e, 0x76, 0x32, 0x64,
//  0x2f, 0x64, 0x65, 0x70, 0x74, 0x68, 0x77, 0x69, 0x73, 0x65, 0x3b, 0x73,
//  0x65, 0x71, 0x75, 0x65, 0x6e, 0x74, 0x69, 0x61, 0x6c, 0x2f, 0x64, 0x65,
//  0x70, 0x74, 0x68, 0x77, 0x69, 0x73, 0x65, 0x5f, 0x63, 0x6f, 0x6e, 0x76,
//  0x32, 0x64, 0x5f, 0x32, 0x2f, 0x42, 0x69, 0x61, 0x73, 0x41, 0x64, 0x64,
//  0x2f, 0x52, 0x65, 0x61, 0x64, 0x56, 0x61, 0x72, 0x69, 0x61, 0x62, 0x6c,
//  0x65, 0x4f, 0x70, 0x2f, 0x72, 0x65, 0x73, 0x6f, 0x75, 0x72, 0x63, 0x65,
//  0x00, 0x00, 0x00, 0x00, 0x04, 0x00, 0x00, 0x00, 0xff, 0xff, 0xff, 0xff,
//  0x19, 0x00, 0x00, 0x00, 0x05, 0x00, 0x00, 0x00, 0x40, 0x00, 0x00, 0x00,
//  0x58, 0x63, 0xff, 0xff, 0x08, 0x00, 0x00, 0x00, 0x0c, 0x00, 0x00, 0x00,
//  0x01, 0x00, 0x00, 0x00, 0x93, 0x9f, 0xc4, 0x3d, 0x01, 0x00, 0x00, 0x00,
//  0x80, 0xff, 0xff, 0xff, 0xff, 0xff, 0xff, 0xff, 0x5e, 0xfe, 0xff, 0xff,
//  0x00, 0x00, 0x00, 0x01, 0x02, 0x00, 0x00, 0x00, 0x30, 0x00, 0x00, 0x00,
//  0x24, 0x00, 0x00, 0x00, 0x10, 0x00, 0x00, 0x00, 0x0c, 0x00, 0x10, 0x00,
//  0x00, 0x00, 0x04, 0x00, 0x08, 0x00, 0x0f, 0x00, 0x0c, 0x00, 0x00, 0x00,
//  0x01, 0x00, 0x00, 0x00, 0x01, 0x00, 0x00, 0x00, 0x00, 0x00, 0x00, 0x01,
//  0x01, 0x00, 0x00, 0x00, 0x19, 0x00, 0x00, 0x00, 0x03, 0x00, 0x00, 0x00,
//  0x18, 0x00, 0x00, 0x00, 0x06, 0x00, 0x00, 0x00, 0x07, 0x00, 0x00, 0x00,
//  0x14, 0xfb, 0xff, 0xff, 0x03, 0x00, 0x00, 0x00, 0x00, 0x00, 0x00, 0x03,
//  0x03, 0x00, 0x00, 0x00, 0x08, 0xfb, 0xff, 0xff, 0x00, 0x00, 0x00, 0x09,
//  0x14, 0x00, 0x00, 0x00, 0x1a, 0x00, 0x00, 0x00, 0x20, 0x00, 0x00, 0x00,
//  0x10, 0x01, 0x00, 0x00, 0xf8, 0x00, 0x00, 0x00, 0x04, 0x00, 0x00, 0x00,
//  0x01, 0x00, 0x00, 0x00, 0x19, 0x00, 0x00, 0x00, 0x05, 0x00, 0x00, 0x00,
//  0x40, 0x00, 0x00, 0x00, 0xd9, 0x00, 0x00, 0x00, 0x73, 0x65, 0x71, 0x75,
//  0x65, 0x6e, 0x74, 0x69, 0x61, 0x6c, 0x2f, 0x61, 0x63, 0x74, 0x69, 0x76,
//  0x61, 0x74, 0x69, 0x6f, 0x6e, 0x5f, 0x32, 0x2f, 0x52, 0x65, 0x6c, 0x75,
//  0x3b, 0x73, 0x65, 0x71, 0x75, 0x65, 0x6e, 0x74, 0x69, 0x61, 0x6c, 0x2f,
//  0x62, 0x61, 0x74, 0x63, 0x68, 0x5f, 0x6e, 0x6f, 0x72, 0x6d, 0x61, 0x6c,
//  0x69, 0x7a, 0x61, 0x74, 0x69, 0x6f, 0x6e, 0x5f, 0x32, 0x2f, 0x46, 0x75,
//  0x73, 0x65, 0x64, 0x42, 0x61, 0x74, 0x63, 0x68, 0x4e, 0x6f, 0x72, 0x6d,
//  0x56, 0x33, 0x3b, 0x73, 0x65, 0x71, 0x75, 0x65, 0x6e, 0x74, 0x69, 0x61,
//  0x6c, 0x2f, 0x63, 0x6f, 0x6e, 0x76, 0x32, 0x64, 0x2f, 0x42, 0x69, 0x61,
//  0x73, 0x41, 0x64, 0x64, 0x2f, 0x52, 0x65, 0x61, 0x64, 0x56, 0x61, 0x72,
//  0x69, 0x61, 0x62, 0x6c, 0x65, 0x4f, 0x70, 0x2f, 0x72, 0x65, 0x73, 0x6f,
//  0x75, 0x72, 0x63, 0x65, 0x3b, 0x73, 0x65, 0x71, 0x75, 0x65, 0x6e, 0x74,
//  0x69, 0x61, 0x6c, 0x2f, 0x63, 0x6f, 0x6e, 0x76, 0x32, 0x64, 0x2f, 0x42,
//  0x69, 0x61, 0x73, 0x41, 0x64, 0x64, 0x3b, 0x73, 0x65, 0x71, 0x75, 0x65,
//  0x6e, 0x74, 0x69, 0x61, 0x6c, 0x2f, 0x64, 0x65, 0x70, 0x74, 0x68, 0x77,
//  0x69, 0x73, 0x65, 0x5f, 0x63, 0x6f, 0x6e, 0x76, 0x32, 0x64, 0x2f, 0x64,
//  0x65, 0x70, 0x74, 0x68, 0x77, 0x69, 0x73, 0x65, 0x3b, 0x73, 0x65, 0x71,
//  0x75, 0x65, 0x6e, 0x74, 0x69, 0x61, 0x6c, 0x2f, 0x63, 0x6f, 0x6e, 0x76,
//  0x32, 0x64, 0x2f, 0x43, 0x6f, 0x6e, 0x76, 0x32, 0x44, 0x00, 0x00, 0x00,
//  0x04, 0x00, 0x00, 0x00, 0xff, 0xff, 0xff, 0xff, 0x19, 0x00, 0x00, 0x00,
//  0x05, 0x00, 0x00, 0x00, 0x40, 0x00, 0x00, 0x00, 0xf8, 0x64, 0xff, 0xff,
//  0x08, 0x00, 0x00, 0x00, 0x0c, 0x00, 0x00, 0x00, 0x01, 0x00, 0x00, 0x00,
//  0x27, 0x9d, 0x07, 0x3e, 0x01, 0x00, 0x00, 0x00, 0x80, 0xff, 0xff, 0xff,
//  0xff, 0xff, 0xff, 0xff, 0x00, 0x00, 0x0e, 0x00, 0x18, 0x00, 0x08, 0x00,
//  0x0c, 0x00, 0x10, 0x00, 0x07, 0x00, 0x14, 0x00, 0x0e, 0x00, 0x00, 0x00,
//  0x00, 0x00, 0x00, 0x02, 0x01, 0x00, 0x00, 0x00, 0x28, 0x00, 0x00, 0x00,
//  0x1c, 0x00, 0x00, 0x00, 0x04, 0x00, 0x00, 0x00, 0x3e, 0xfe, 0xff, 0xff,
//  0x01, 0x00, 0x00, 0x00, 0x01, 0x00, 0x00, 0x00, 0x01, 0x00, 0x00, 0x00,
//  0x00, 0x00, 0x00, 0x01, 0x01, 0x00, 0x00, 0x00, 0x18, 0x00, 0x00, 0x00,
//  0x03, 0x00, 0x00, 0x00, 0x17, 0x00, 0x00, 0x00, 0x04, 0x00, 0x00, 0x00,
//  0x05, 0x00, 0x00, 0x00, 0xa0, 0xfc, 0xff, 0xff, 0x00, 0x00, 0x00, 0x09,
//  0x14, 0x00, 0x00, 0x00, 0x19, 0x00, 0x00, 0x00, 0x20, 0x00, 0x00, 0x00,
//  0x38, 0x01, 0x00, 0x00, 0x20, 0x01, 0x00, 0x00, 0x04, 0x00, 0x00, 0x00,
//  0x01, 0x00, 0x00, 0x00, 0x19, 0x00, 0x00, 0x00, 0x05, 0x00, 0x00, 0x00,
//  0x40, 0x00, 0x00, 0x00, 0x00, 0x01, 0x00, 0x00, 0x73, 0x65, 0x71, 0x75,
//  0x65, 0x6e, 0x74, 0x69, 0x61, 0x6c, 0x2f, 0x61, 0x63, 0x74, 0x69, 0x76,
//  0x61, 0x74, 0x69, 0x6f, 0x6e, 0x5f, 0x31, 0x2f, 0x52, 0x65, 0x6c, 0x75,
//  0x3b, 0x73, 0x65, 0x71, 0x75, 0x65, 0x6e, 0x74, 0x69, 0x61, 0x6c, 0x2f,
//  0x62, 0x61, 0x74, 0x63, 0x68, 0x5f, 0x6e, 0x6f, 0x72, 0x6d, 0x61, 0x6c,
//  0x69, 0x7a, 0x61, 0x74, 0x69, 0x6f, 0x6e, 0x5f, 0x31, 0x2f, 0x46, 0x75,
//  0x73, 0x65, 0x64, 0x42, 0x61, 0x74, 0x63, 0x68, 0x4e, 0x6f, 0x72, 0x6d,
//  0x56, 0x33, 0x3b, 0x73, 0x65, 0x71, 0x75, 0x65, 0x6e, 0x74, 0x69, 0x61,
//  0x6c, 0x2f, 0x64, 0x65, 0x70, 0x74, 0x68, 0x77, 0x69, 0x73, 0x65, 0x5f,
//  0x63, 0x6f, 0x6e, 0x76, 0x32, 0x64, 0x5f, 0x31, 0x2f, 0x64, 0x65, 0x70,
//  0x74, 0x68, 0x77, 0x69, 0x73, 0x65, 0x3b, 0x73, 0x65, 0x71, 0x75, 0x65,
//  0x6e, 0x74, 0x69, 0x61, 0x6c, 0x2f, 0x64, 0x65, 0x70, 0x74, 0x68, 0x77,
//  0x69, 0x73, 0x65, 0x5f, 0x63, 0x6f, 0x6e, 0x76, 0x32, 0x64, 0x5f, 0x31,
//  0x2f, 0x42, 0x69, 0x61, 0x73, 0x41, 0x64, 0x64, 0x3b, 0x73, 0x65, 0x71,
//  0x75, 0x65, 0x6e, 0x74, 0x69, 0x61, 0x6c, 0x2f, 0x64, 0x65, 0x70, 0x74,
//  0x68, 0x77, 0x69, 0x73, 0x65, 0x5f, 0x63, 0x6f, 0x6e, 0x76, 0x32, 0x64,
//  0x2f, 0x64, 0x65, 0x70, 0x74, 0x68, 0x77, 0x69, 0x73, 0x65, 0x3b, 0x73,
//  0x65, 0x71, 0x75, 0x65, 0x6e, 0x74, 0x69, 0x61, 0x6c, 0x2f, 0x64, 0x65,
//  0x70, 0x74, 0x68, 0x77, 0x69, 0x73, 0x65, 0x5f, 0x63, 0x6f, 0x6e, 0x76,
//  0x32, 0x64, 0x5f, 0x31, 0x2f, 0x42, 0x69, 0x61, 0x73, 0x41, 0x64, 0x64,
//  0x2f, 0x52, 0x65, 0x61, 0x64, 0x56, 0x61, 0x72, 0x69, 0x61, 0x62, 0x6c,
//  0x65, 0x4f, 0x70, 0x2f, 0x72, 0x65, 0x73, 0x6f, 0x75, 0x72, 0x63, 0x65,
//  0x00, 0x00, 0x00, 0x00, 0x04, 0x00, 0x00, 0x00, 0xff, 0xff, 0xff, 0xff,
//  0x19, 0x00, 0x00, 0x00, 0x05, 0x00, 0x00, 0x00, 0x40, 0x00, 0x00, 0x00,
//  0xb8, 0x66, 0xff, 0xff, 0x08, 0x00, 0x00, 0x00, 0x0c, 0x00, 0x00, 0x00,
//  0x01, 0x00, 0x00, 0x00, 0xa2, 0x61, 0x10, 0x3e, 0x01, 0x00, 0x00, 0x00,
//  0x80, 0xff, 0xff, 0xff, 0xff, 0xff, 0xff, 0xff, 0x00, 0x00, 0x0e, 0x00,
//  0x1a, 0x00, 0x08, 0x00, 0x0c, 0x00, 0x10, 0x00, 0x07, 0x00, 0x14, 0x00,
//  0x0e, 0x00, 0x00, 0x00, 0x00, 0x00, 0x00, 0x02, 0x01, 0x00, 0x00, 0x00,
//  0x38, 0x00, 0x00, 0x00, 0x2c, 0x00, 0x00, 0x00, 0x14, 0x00, 0x00, 0x00,
//  0x00, 0x00, 0x0e, 0x00, 0x14, 0x00, 0x00, 0x00, 0x08, 0x00, 0x0c, 0x00,
//  0x04, 0x00, 0x13, 0x00, 0x0e, 0x00, 0x00, 0x00, 0x40, 0x00, 0x00, 0x00,
//  0x02, 0x00, 0x00, 0x00, 0x02, 0x00, 0x00, 0x00, 0x00, 0x00, 0x00, 0x01,
//  0x01, 0x00, 0x00, 0x00, 0x17, 0x00, 0x00, 0x00, 0x03, 0x00, 0x00, 0x00,
//  0x16, 0x00, 0x00, 0x00, 0x02, 0x00, 0x00, 0x00, 0x03, 0x00, 0x00, 0x00,
//  0x8c, 0xfe, 0xff, 0xff, 0x04, 0x00, 0x00, 0x00, 0x00, 0x00, 0x00, 0x04,
//  0x03, 0x00, 0x00, 0x00, 0x80, 0xfe, 0xff, 0xff, 0x00, 0x00, 0x00, 0x09,
//  0x14, 0x00, 0x00, 0x00, 0x18, 0x00, 0x00, 0x00, 0x20, 0x00, 0x00, 0x00,
//  0x08, 0x01, 0x00, 0x00, 0xf0, 0x00, 0x00, 0x00, 0x04, 0x00, 0x00, 0x00,
//  0x01, 0x00, 0x00, 0x00, 0x19, 0x00, 0x00, 0x00, 0x05, 0x00, 0x00, 0x00,
//  0x40, 0x00, 0x00, 0x00, 0xd0, 0x00, 0x00, 0x00, 0x73, 0x65, 0x71, 0x75,
//  0x65, 0x6e, 0x74, 0x69, 0x61, 0x6c, 0x2f, 0x61, 0x63, 0x74, 0x69, 0x76,
//  0x61, 0x74, 0x69, 0x6f, 0x6e, 0x2f, 0x52, 0x65, 0x6c, 0x75, 0x3b, 0x73,
//  0x65, 0x71, 0x75, 0x65, 0x6e, 0x74, 0x69, 0x61, 0x6c, 0x2f, 0x62, 0x61,
//  0x74, 0x63, 0x68, 0x5f, 0x6e, 0x6f, 0x72, 0x6d, 0x61, 0x6c, 0x69, 0x7a,
//  0x61, 0x74, 0x69, 0x6f, 0x6e, 0x2f, 0x46, 0x75, 0x73, 0x65, 0x64, 0x42,
//  0x61, 0x74, 0x63, 0x68, 0x4e, 0x6f, 0x72, 0x6d, 0x56, 0x33, 0x3b, 0x73,
//  0x65, 0x71, 0x75, 0x65, 0x6e, 0x74, 0x69, 0x61, 0x6c, 0x2f, 0x64, 0x65,
//  0x70, 0x74, 0x68, 0x77, 0x69, 0x73, 0x65, 0x5f, 0x63, 0x6f, 0x6e, 0x76,
//  0x32, 0x64, 0x2f, 0x64, 0x65, 0x70, 0x74, 0x68, 0x77, 0x69, 0x73, 0x65,
//  0x3b, 0x73, 0x65, 0x71, 0x75, 0x65, 0x6e, 0x74, 0x69, 0x61, 0x6c, 0x2f,
//  0x64, 0x65, 0x70, 0x74, 0x68, 0x77, 0x69, 0x73, 0x65, 0x5f, 0x63, 0x6f,
//  0x6e, 0x76, 0x32, 0x64, 0x2f, 0x42, 0x69, 0x61, 0x73, 0x41, 0x64, 0x64,
//  0x3b, 0x73, 0x65, 0x71, 0x75, 0x65, 0x6e, 0x74, 0x69, 0x61, 0x6c, 0x2f,
//  0x64, 0x65, 0x70, 0x74, 0x68, 0x77, 0x69, 0x73, 0x65, 0x5f, 0x63, 0x6f,
//  0x6e, 0x76, 0x32, 0x64, 0x2f, 0x42, 0x69, 0x61, 0x73, 0x41, 0x64, 0x64,
//  0x2f, 0x52, 0x65, 0x61, 0x64, 0x56, 0x61, 0x72, 0x69, 0x61, 0x62, 0x6c,
//  0x65, 0x4f, 0x70, 0x2f, 0x72, 0x65, 0x73, 0x6f, 0x75, 0x72, 0x63, 0x65,
//  0x00, 0x00, 0x00, 0x00, 0x04, 0x00, 0x00, 0x00, 0xff, 0xff, 0xff, 0xff,
//  0x19, 0x00, 0x00, 0x00, 0x05, 0x00, 0x00, 0x00, 0x40, 0x00, 0x00, 0x00,
//  0x68, 0x68, 0xff, 0xff, 0x08, 0x00, 0x00, 0x00, 0x0c, 0x00, 0x00, 0x00,
//  0x01, 0x00, 0x00, 0x00, 0x2b, 0x53, 0x60, 0x3e, 0x01, 0x00, 0x00, 0x00,
//  0x80, 0xff, 0xff, 0xff, 0xff, 0xff, 0xff, 0xff, 0x00, 0x00, 0x0a, 0x00,
//  0x0c, 0x00, 0x00, 0x00, 0x04, 0x00, 0x08, 0x00, 0x0a, 0x00, 0x00, 0x00,
//  0x10, 0x00, 0x00, 0x00, 0x04, 0x00, 0x00, 0x00, 0x01, 0x00, 0x00, 0x00,
//  0x16, 0x00, 0x00, 0x00, 0x01, 0x00, 0x00, 0x00, 0x00, 0x00, 0x00, 0x00,
//  0x0c, 0x00, 0x10, 0x00, 0x0b, 0x00, 0x00, 0x00, 0x0c, 0x00, 0x04, 0x00,
//  0x0c, 0x00, 0x00, 0x00, 0x72, 0x00, 0x00, 0x00, 0x00, 0x00, 0x00, 0x72,
//  0x01, 0x00, 0x00, 0x00, 0x14, 0x00, 0x1c, 0x00, 0x08, 0x00, 0x07, 0x00,
//  0x0c, 0x00, 0x10, 0x00, 0x14, 0x00, 0x00, 0x00, 0x00, 0x00, 0x18, 0x00,
//  0x14, 0x00, 0x00, 0x00, 0x00, 0x00, 0x00, 0x09, 0x14, 0x00, 0x00, 0x00,
//  0x17, 0x00, 0x00, 0x00, 0x20, 0x00, 0x00, 0x00, 0x44, 0x00, 0x00, 0x00,
//  0x2c, 0x00, 0x00, 0x00, 0x04, 0x00, 0x00, 0x00, 0x01, 0x00, 0x00, 0x00,
//  0x31, 0x00, 0x00, 0x00, 0x0a, 0x00, 0x00, 0x00, 0x01, 0x00, 0x00, 0x00,
//  0x0c, 0x00, 0x00, 0x00, 0x74, 0x66, 0x6c, 0x2e, 0x71, 0x75, 0x61, 0x6e,
//  0x74, 0x69, 0x7a, 0x65, 0x00, 0x00, 0x00, 0x00, 0x04, 0x00, 0x00, 0x00,
//  0xff, 0xff, 0xff, 0xff, 0x31, 0x00, 0x00, 0x00, 0x0a, 0x00, 0x00, 0x00,
//  0x01, 0x00, 0x00, 0x00, 0x38, 0x69, 0xff, 0xff, 0x08, 0x00, 0x00, 0x00,
//  0x0c, 0x00, 0x00, 0x00, 0x01, 0x00, 0x00, 0x00, 0x2d, 0x74, 0x21, 0x3f,
//  0x01, 0x00, 0x00, 0x00, 0x44, 0x00, 0x00, 0x00, 0x00, 0x00, 0x00, 0x00,
//  0x00, 0x00, 0x00, 0x00, 0x16, 0x58, 0xff, 0xff, 0x04, 0x00, 0x00, 0x00,
//  0x30, 0x00, 0x00, 0x00, 0x9e, 0xfc, 0xff, 0xff, 0x16, 0xfd, 0xff, 0xff,
//  0x84, 0xfe, 0xff, 0xff, 0x58, 0xff, 0xff, 0xff, 0xbd, 0xfe, 0xff, 0xff,
//  0xac, 0xfe, 0xff, 0xff, 0x14, 0xfd, 0xff, 0xff, 0x51, 0xfc, 0xff, 0xff,
//  0x41, 0xfd, 0xff, 0xff, 0x14, 0x00, 0x00, 0x00, 0xda, 0xfc, 0xff, 0xff,
//  0x52, 0x01, 0x00, 0x00, 0x36, 0x58, 0xff, 0xff, 0x00, 0x00, 0x00, 0x02,
//  0x10, 0x00, 0x00, 0x00, 0x16, 0x00, 0x00, 0x00, 0x10, 0x00, 0x00, 0x00,
//  0x44, 0x00, 0x00, 0x00, 0x01, 0x00, 0x00, 0x00, 0x0c, 0x00, 0x00, 0x00,
//  0x30, 0x00, 0x00, 0x00, 0x73, 0x65, 0x71, 0x75, 0x65, 0x6e, 0x74, 0x69,
//  0x61, 0x6c, 0x2f, 0x62, 0x61, 0x74, 0x63, 0x68, 0x5f, 0x6e, 0x6f, 0x72,
//  0x6d, 0x61, 0x6c, 0x69, 0x7a, 0x61, 0x74, 0x69, 0x6f, 0x6e, 0x5f, 0x39,
//  0x2f, 0x62, 0x61, 0x74, 0x63, 0x68, 0x6e, 0x6f, 0x72, 0x6d, 0x2f, 0x61,
//  0x64, 0x64, 0x5f, 0x31, 0x00, 0x00, 0x00, 0x00, 0xf0, 0x69, 0xff, 0xff,
//  0x08, 0x00, 0x00, 0x00, 0x0c, 0x00, 0x00, 0x00, 0x01, 0x00, 0x00, 0x00,
//  0x6c, 0x7f, 0xcd, 0x3c, 0x01, 0x00, 0x00, 0x00, 0x00, 0x00, 0x00, 0x00,
//  0x00, 0x00, 0x00, 0x00, 0xca, 0x58, 0xff, 0xff, 0x04, 0x00, 0x00, 0x00,
//  0x00, 0x03, 0x00, 0x00, 0x24, 0xc2, 0x2e, 0x07, 0xf3, 0xe7, 0x25, 0x12,
//  0xf5, 0xeb, 0x4e, 0x1b, 0x02, 0xe5, 0x0d, 0x09, 0xf5, 0x22, 0x03, 0x32,
//  0xda, 0xdc, 0x40, 0xe7, 0x0d, 0x6d, 0xfb, 0xcc, 0xea, 0x10, 0xf4, 0x0a,
//  0xf0, 0x37, 0x2b, 0x43, 0xc8, 0x3b, 0x38, 0xd9, 0xf0, 0x25, 0x09, 0xd2,
//  0xee, 0x2a, 0x3a, 0x12, 0x0e, 0xd9, 0x10, 0xd8, 0xfa, 0xe8, 0xef, 0x23,
//  0xff, 0x18, 0x21, 0x1b, 0xf1, 0xc6, 0x25, 0xf7, 0x2f, 0xcc, 0xc5, 0x16,
//  0x12, 0xe0, 0x05, 0x31, 0x01, 0x00, 0x0e, 0x27, 0x4a, 0x02, 0xec, 0x30,
//  0x2c, 0xbc, 0xd4, 0xf4, 0x1d, 0x4b, 0x2b, 0x40, 0x2a, 0xf6, 0x1c, 0x0a,
//  0x45, 0x29, 0xd9, 0xdb, 0x25, 0xff, 0x1d, 0x1e, 0x07, 0xf9, 0xe3, 0xd7,
//  0xe8, 0xdd, 0xfb, 0x12, 0x3f, 0xdf, 0xfa, 0xdb, 0x34, 0x2b, 0x00, 0xf9,
//  0x17, 0x10, 0xd8, 0xfc, 0xcf, 0x48, 0x21, 0xb6, 0xd5, 0x1d, 0x15, 0xdd,
//  0x33, 0xe5, 0x2d, 0x15, 0x00, 0xb3, 0xd4, 0xf4, 0x1c, 0x42, 0xdd, 0x08,
//  0xe1, 0x27, 0x09, 0x26, 0xe9, 0x1d, 0xd6, 0xc7, 0xe7, 0x2d, 0xf9, 0xfa,
//  0x3b, 0x2a, 0x1a, 0x4c, 0xda, 0xd4, 0xf5, 0x38, 0x10, 0xca, 0x0c, 0xe7,
//  0x10, 0xdd, 0x3a, 0xeb, 0x05, 0xe6, 0xa8, 0xe6, 0x0d, 0x1d, 0x2b, 0x0a,
//  0xe4, 0xaa, 0xfb, 0xfb, 0xfd, 0x0f, 0x0b, 0xd7, 0xf5, 0x35, 0x5b, 0x16,
//  0xf3, 0xd5, 0x2e, 0x04, 0x2b, 0xd4, 0xe1, 0xfa, 0x13, 0xc5, 0x11, 0x1a,
//  0x08, 0x20, 0x05, 0xb0, 0xd4, 0xf2, 0x05, 0x14, 0xde, 0xf7, 0xf0, 0xb6,
//  0xec, 0xd7, 0x1f, 0x59, 0x01, 0xfb, 0x0e, 0xce, 0xbc, 0x0d, 0x02, 0x1b,
//  0x07, 0x0e, 0x2a, 0x04, 0x5b, 0x30, 0x1c, 0x2d, 0x0b, 0x42, 0xea, 0x44,
//  0xb5, 0x07, 0xe8, 0xf2, 0xf4, 0xf4, 0x2d, 0x03, 0x22, 0x02, 0xf9, 0x1c,
//  0xcc, 0xea, 0x02, 0xc4, 0xef, 0x23, 0x0e, 0x11, 0x29, 0xd1, 0xf4, 0xcb,
//  0xb0, 0x2c, 0xef, 0x0b, 0xf8, 0xf7, 0x19, 0xdb, 0xe6, 0x4d, 0xe9, 0x07,
//  0xe9, 0xb3, 0xff, 0x1f, 0x13, 0xf5, 0x32, 0x13, 0xda, 0x23, 0x32, 0xf4,
//  0xd8, 0x07, 0xf1, 0xf7, 0x67, 0x12, 0x44, 0x3b, 0x0e, 0xca, 0x20, 0x40,
//  0x1d, 0xed, 0xf5, 0xda, 0x30, 0x00, 0x3f, 0xe7, 0xc6, 0xf0, 0x2e, 0x09,
//  0xce, 0x41, 0xfe, 0xe2, 0xa3, 0x11, 0xe2, 0x0d, 0x14, 0x07, 0x0d, 0xc2,
//  0x11, 0xcb, 0x11, 0x12, 0xeb, 0x26, 0x15, 0x1d, 0xfe, 0x38, 0xdf, 0xbc,
//  0x33, 0xcf, 0x19, 0x39, 0xf8, 0x20, 0xdd, 0x1b, 0xe2, 0x2e, 0xc4, 0x15,
//  0xad, 0x26, 0x15, 0xce, 0xdf, 0x3f, 0xf9, 0xed, 0xdd, 0xf1, 0x0b, 0x0f,
//  0x07, 0xe3, 0xd1, 0xc9, 0x5f, 0x31, 0x1e, 0x17, 0xf2, 0xef, 0x35, 0x0e,
//  0xf0, 0xf0, 0x0b, 0x0e, 0x0e, 0xd6, 0x24, 0xe1, 0x69, 0x10, 0x1f, 0xfd,
//  0x23, 0xf9, 0x52, 0xeb, 0x21, 0xe7, 0x23, 0x0e, 0x1f, 0x16, 0xdb, 0x02,
//  0x11, 0xdc, 0x52, 0x33, 0x02, 0xf6, 0x10, 0x04, 0x0e, 0xb5, 0xe5, 0xb6,
//  0xf1, 0xee, 0xc5, 0xe9, 0x47, 0x0a, 0xbe, 0xcd, 0xf9, 0xc5, 0xfd, 0x00,
//  0x1e, 0xf4, 0xf5, 0x0d, 0x32, 0xcd, 0xe6, 0xef, 0xf3, 0x2d, 0xf8, 0x15,
//  0x18, 0x20, 0x32, 0x23, 0x0b, 0x07, 0x59, 0x4e, 0xdc, 0x3a, 0x58, 0x10,
//  0xf9, 0xee, 0xc1, 0x53, 0xe0, 0x19, 0xfc, 0x29, 0x2d, 0xd2, 0x23, 0xe8,
//  0x45, 0xf2, 0x2b, 0xef, 0x6c, 0x7f, 0xcc, 0x08, 0xe5, 0xdd, 0x26, 0xd0,
//  0x11, 0xd8, 0xdc, 0x22, 0xdc, 0x15, 0xe2, 0x08, 0xcb, 0x3f, 0xdb, 0x00,
//  0x10, 0x24, 0x3a, 0x46, 0xf1, 0x0f, 0x13, 0x40, 0x16, 0xf4, 0x17, 0xfb,
//  0xff, 0x3d, 0x10, 0x14, 0x43, 0x0d, 0x0c, 0xe1, 0xe9, 0x0f, 0x50, 0x3d,
//  0xa5, 0x46, 0xe6, 0xf6, 0xfc, 0xec, 0xe1, 0xf4, 0xc0, 0x12, 0xf7, 0xd4,
//  0x31, 0xd2, 0x00, 0x44, 0x3c, 0x01, 0x0a, 0x04, 0xe9, 0x16, 0x2b, 0xca,
//  0x0b, 0x0d, 0xf0, 0x10, 0x13, 0xdd, 0xe6, 0x03, 0x1a, 0xe8, 0xf4, 0x1e,
//  0xe6, 0x2a, 0xe3, 0x32, 0xde, 0x29, 0xed, 0xd2, 0x1e, 0xfc, 0xd1, 0x02,
//  0x06, 0x30, 0x0d, 0x21, 0xd9, 0xea, 0xf1, 0x30, 0x16, 0x00, 0xd9, 0x77,
//  0xf9, 0xfd, 0xf7, 0xe4, 0xbe, 0xf5, 0x0e, 0xff, 0x0e, 0xf4, 0xf7, 0x05,
//  0x21, 0xfe, 0xed, 0x3b, 0x16, 0xe0, 0x22, 0x27, 0xfc, 0x1f, 0x2e, 0x35,
//  0xde, 0xf5, 0x04, 0xe4, 0xf1, 0xe2, 0xe6, 0xc4, 0xab, 0xf7, 0xb2, 0xf3,
//  0x3c, 0x15, 0x11, 0x15, 0xd1, 0x17, 0x17, 0xdd, 0xf0, 0x00, 0x19, 0xf7,
//  0x03, 0x71, 0xb1, 0xf9, 0x02, 0xee, 0xf3, 0xd8, 0x1b, 0xe1, 0xa4, 0x0d,
//  0x18, 0x05, 0x16, 0x05, 0x3a, 0x20, 0xf3, 0x43, 0xe7, 0x1c, 0xf1, 0x38,
//  0xe4, 0x1f, 0xce, 0xfb, 0xee, 0x13, 0x28, 0x22, 0x05, 0xb3, 0x05, 0xec,
//  0xf5, 0xed, 0xd2, 0x37, 0x4f, 0xee, 0x20, 0x11, 0xff, 0xf4, 0xec, 0xe8,
//  0x10, 0xeb, 0xf6, 0xad, 0x45, 0x0e, 0x3a, 0x15, 0x0e, 0x47, 0xe8, 0x04,
//  0xfd, 0x5e, 0xea, 0x1b, 0x23, 0xf6, 0x1f, 0xfa, 0xf9, 0xf5, 0x1a, 0xfa,
//  0xf5, 0x14, 0x0c, 0x20, 0x33, 0x4f, 0x19, 0x16, 0x22, 0x24, 0x19, 0x1b,
//  0xec, 0x0f, 0x48, 0xe4, 0xf0, 0xf7, 0xf9, 0x1b, 0xec, 0xe9, 0x05, 0xf4,
//  0xee, 0xd0, 0x2c, 0x06, 0xe4, 0xf6, 0xcd, 0x9a, 0x1e, 0xe8, 0x0d, 0xd0,
//  0x38, 0x23, 0x5f, 0xbc, 0xe6, 0x1e, 0xc4, 0xf6, 0xde, 0x17, 0xfe, 0x32,
//  0xe4, 0xab, 0xc7, 0xf0, 0xe2, 0x2d, 0x58, 0xd8, 0x31, 0x2d, 0xbb, 0x2b,
//  0x20, 0x9f, 0x42, 0x0b, 0x08, 0x33, 0x19, 0xda, 0xeb, 0xde, 0xa6, 0x1d,
//  0x36, 0xfc, 0x18, 0x09, 0xe0, 0xbf, 0xc4, 0xe3, 0x03, 0x55, 0xd8, 0x06,
//  0xb7, 0xb5, 0xea, 0x29, 0xba, 0x5b, 0xff, 0xff, 0x00, 0x00, 0x00, 0x09,
//  0x10, 0x00, 0x00, 0x00, 0x15, 0x00, 0x00, 0x00, 0x14, 0x00, 0x00, 0x00,
//  0x48, 0x00, 0x00, 0x00, 0x02, 0x00, 0x00, 0x00, 0x0c, 0x00, 0x00, 0x00,
//  0x40, 0x00, 0x00, 0x00, 0x30, 0x00, 0x00, 0x00, 0x73, 0x65, 0x71, 0x75,
//  0x65, 0x6e, 0x74, 0x69, 0x61, 0x6c, 0x2f, 0x62, 0x61, 0x74, 0x63, 0x68,
//  0x5f, 0x6e, 0x6f, 0x72, 0x6d, 0x61, 0x6c, 0x69, 0x7a, 0x61, 0x74, 0x69,
//  0x6f, 0x6e, 0x5f, 0x39, 0x2f, 0x62, 0x61, 0x74, 0x63, 0x68, 0x6e, 0x6f,
//  0x72, 0x6d, 0x2f, 0x6d, 0x75, 0x6c, 0x5f, 0x31, 0x00, 0x00, 0x00, 0x00,
//  0x78, 0x6d, 0xff, 0xff, 0x08, 0x00, 0x00, 0x00, 0x0c, 0x00, 0x00, 0x00,
//  0x01, 0x00, 0x00, 0x00, 0xfb, 0x33, 0xb4, 0x3e, 0x01, 0x00, 0x00, 0x00,
//  0x00, 0x00, 0x00, 0x00, 0x00, 0x00, 0x00, 0x00, 0x52, 0x5c, 0xff, 0xff,
//  0x04, 0x00, 0x00, 0x00, 0x00, 0x01, 0x00, 0x00, 0x77, 0x06, 0x00, 0x00,
//  0x1d, 0xfc, 0xff, 0xff, 0xa9, 0x06, 0x00, 0x00, 0x3a, 0xf9, 0xff, 0xff,
//  0xdd, 0xf5, 0xff, 0xff, 0xf2, 0x02, 0x00, 0x00, 0x24, 0xfd, 0xff, 0xff,
//  0x30, 0xe9, 0xff, 0xff, 0x14, 0x02, 0x00, 0x00, 0x5f, 0x03, 0x00, 0x00,
//  0x94, 0x03, 0x00, 0x00, 0x4e, 0x05, 0x00, 0x00, 0x40, 0xf5, 0xff, 0xff,
//  0xbf, 0xfd, 0xff, 0xff, 0x85, 0xff, 0xff, 0xff, 0x5e, 0xf7, 0xff, 0xff,
//  0x25, 0xf3, 0xff, 0xff, 0x48, 0x04, 0x00, 0x00, 0x3b, 0xf1, 0xff, 0xff,
//  0xae, 0x09, 0x00, 0x00, 0xe1, 0x00, 0x00, 0x00, 0x5f, 0x0b, 0x00, 0x00,
//  0x5c, 0xfe, 0xff, 0xff, 0x81, 0xff, 0xff, 0xff, 0x69, 0xfc, 0xff, 0xff,
//  0x86, 0xe8, 0xff, 0xff, 0x60, 0xf4, 0xff, 0xff, 0xfe, 0xfb, 0xff, 0xff,
//  0xd1, 0x05, 0x00, 0x00, 0x2b, 0xe1, 0xff, 0xff, 0x4f, 0xfd, 0xff, 0xff,
//  0xe8, 0x00, 0x00, 0x00, 0x6e, 0xef, 0xff, 0xff, 0xa7, 0xfe, 0xff, 0xff,
//  0xb7, 0xf9, 0xff, 0xff, 0xb4, 0xfd, 0xff, 0xff, 0xf6, 0xfc, 0xff, 0xff,
//  0x1d, 0xf9, 0xff, 0xff, 0x40, 0x02, 0x00, 0x00, 0xfd, 0x02, 0x00, 0x00,
//  0xdf, 0xfb, 0xff, 0xff, 0xbe, 0x02, 0x00, 0x00, 0xe8, 0x01, 0x00, 0x00,
//  0xd6, 0xf6, 0xff, 0xff, 0x64, 0xf6, 0xff, 0xff, 0x66, 0x07, 0x00, 0x00,
//  0x6b, 0xfa, 0xff, 0xff, 0xad, 0x08, 0x00, 0x00, 0x51, 0x02, 0x00, 0x00,
//  0xd0, 0xfb, 0xff, 0xff, 0xbc, 0xfe, 0xff, 0xff, 0xc6, 0x00, 0x00, 0x00,
//  0x96, 0x05, 0x00, 0x00, 0x4d, 0xef, 0xff, 0xff, 0x6f, 0xef, 0xff, 0xff,
//  0x33, 0xfa, 0xff, 0xff, 0x9c, 0xf9, 0xff, 0xff, 0x32, 0x05, 0x00, 0x00,
//  0x68, 0xf4, 0xff, 0xff, 0x12, 0xff, 0xff, 0xff, 0x24, 0xf2, 0xff, 0xff,
//  0x67, 0xf6, 0xff, 0xff, 0xe0, 0x01, 0x00, 0x00, 0x44, 0xe8, 0xff, 0xff,
//  0x42, 0x5d, 0xff, 0xff, 0x00, 0x00, 0x00, 0x02, 0x10, 0x00, 0x00, 0x00,
//  0x14, 0x00, 0x00, 0x00, 0x10, 0x00, 0x00, 0x00, 0xd4, 0x00, 0x00, 0x00,
//  0x01, 0x00, 0x00, 0x00, 0x40, 0x00, 0x00, 0x00, 0xc2, 0x00, 0x00, 0x00,
//  0x73, 0x65, 0x71, 0x75, 0x65, 0x6e, 0x74, 0x69, 0x61, 0x6c, 0x2f, 0x62,
//  0x61, 0x74, 0x63, 0x68, 0x5f, 0x6e, 0x6f, 0x72, 0x6d, 0x61, 0x6c, 0x69,
//  0x7a, 0x61, 0x74, 0x69, 0x6f, 0x6e, 0x5f, 0x38, 0x2f, 0x46, 0x75, 0x73,
//  0x65, 0x64, 0x42, 0x61, 0x74, 0x63, 0x68, 0x4e, 0x6f, 0x72, 0x6d, 0x56,
//  0x33, 0x3b, 0x73, 0x65, 0x71, 0x75, 0x65, 0x6e, 0x74, 0x69, 0x61, 0x6c,
//  0x2f, 0x63, 0x6f, 0x6e, 0x76, 0x32, 0x64, 0x5f, 0x33, 0x2f, 0x42, 0x69,
//  0x61, 0x73, 0x41, 0x64, 0x64, 0x2f, 0x52, 0x65, 0x61, 0x64, 0x56, 0x61,
//  0x72, 0x69, 0x61, 0x62, 0x6c, 0x65, 0x4f, 0x70, 0x2f, 0x72, 0x65, 0x73,
//  0x6f, 0x75, 0x72, 0x63, 0x65, 0x3b, 0x73, 0x65, 0x71, 0x75, 0x65, 0x6e,
//  0x74, 0x69, 0x61, 0x6c, 0x2f, 0x63, 0x6f, 0x6e, 0x76, 0x32, 0x64, 0x5f,
//  0x33, 0x2f, 0x42, 0x69, 0x61, 0x73, 0x41, 0x64, 0x64, 0x3b, 0x73, 0x65,
//  0x71, 0x75, 0x65, 0x6e, 0x74, 0x69, 0x61, 0x6c, 0x2f, 0x64, 0x65, 0x70,
//  0x74, 0x68, 0x77, 0x69, 0x73, 0x65, 0x5f, 0x63, 0x6f, 0x6e, 0x76, 0x32,
//  0x64, 0x2f, 0x64, 0x65, 0x70, 0x74, 0x68, 0x77, 0x69, 0x73, 0x65, 0x3b,
//  0x73, 0x65, 0x71, 0x75, 0x65, 0x6e, 0x74, 0x69, 0x61, 0x6c, 0x2f, 0x63,
//  0x6f, 0x6e, 0x76, 0x32, 0x64, 0x5f, 0x33, 0x2f, 0x43, 0x6f, 0x6e, 0x76,
//  0x32, 0x44, 0x00, 0x00, 0x8c, 0x6f, 0xff, 0xff, 0x08, 0x00, 0x00, 0x00,
//  0x08, 0x01, 0x00, 0x00, 0x40, 0x00, 0x00, 0x00, 0x3f, 0x47, 0xb2, 0x39,
//  0x92, 0x7a, 0x06, 0x3a, 0x6a, 0x4c, 0x92, 0x39, 0x52, 0x8d, 0x80, 0x39,
//  0xb3, 0x12, 0x03, 0x3a, 0x72, 0x8c, 0x9f, 0x39, 0x4e, 0x3c, 0xa3, 0x39,
//  0x65, 0x8b, 0x66, 0x39, 0x4b, 0x2e, 0xa8, 0x39, 0x79, 0xcc, 0xac, 0x39,
//  0x81, 0x07, 0x89, 0x39, 0x26, 0xd7, 0x9e, 0x39, 0x79, 0xdb, 0x9a, 0x39,
//  0x04, 0x03, 0xa7, 0x39, 0x14, 0x34, 0xac, 0x39, 0x09, 0x30, 0xa8, 0x39,
//  0xaf, 0xf8, 0x74, 0x39, 0x74, 0x4f, 0xa7, 0x39, 0x14, 0x9e, 0x83, 0x39,
//  0x68, 0x9c, 0x9d, 0x39, 0xc4, 0x2e, 0x9a, 0x39, 0xd1, 0x22, 0xa2, 0x39,
//  0xda, 0x55, 0x9c, 0x39, 0x6b, 0x8b, 0xb0, 0x39, 0xcd, 0xc9, 0xc4, 0x39,
//  0xdf, 0xae, 0x99, 0x39, 0x9a, 0xe9, 0xa1, 0x39, 0xae, 0x72, 0xf9, 0x39,
//  0xbc, 0x4d, 0x99, 0x39, 0x14, 0x34, 0x6f, 0x39, 0xc2, 0x70, 0xa7, 0x39,
//  0x50, 0xfb, 0xad, 0x39, 0x17, 0x14, 0x91, 0x39, 0x7d, 0x28, 0xc5, 0x39,
//  0x72, 0xb5, 0x9a, 0x39, 0x40, 0xa5, 0x88, 0x39, 0x21, 0x45, 0x83, 0x39,
//  0xbe, 0x7c, 0xa2, 0x39, 0x39, 0x19, 0xb3, 0x39, 0xd7, 0xd5, 0x87, 0x39,
//  0x83, 0xf9, 0xf7, 0x39, 0xa0, 0xcb, 0x87, 0x39, 0x7b, 0xac, 0xb0, 0x39,
//  0x45, 0xb3, 0x8b, 0x39, 0x5a, 0xd8, 0xcb, 0x39, 0xde, 0xee, 0x97, 0x39,
//  0xfa, 0x0b, 0xb7, 0x39, 0x5c, 0x93, 0xd2, 0x39, 0x78, 0xce, 0x68, 0x39,
//  0xea, 0x99, 0x8a, 0x39, 0x24, 0x20, 0xb1, 0x39, 0x08, 0x1e, 0xa8, 0x39,
//  0x8d, 0x9f, 0x95, 0x39, 0x1d, 0x13, 0xa5, 0x39, 0xfb, 0x5a, 0x79, 0x39,
//  0x99, 0xeb, 0x84, 0x39, 0xa6, 0xe7, 0xae, 0x39, 0xce, 0x3b, 0xe8, 0x39,
//  0x74, 0x5d, 0xa6, 0x39, 0xe4, 0xd5, 0x67, 0x39, 0x56, 0x2f, 0x8f, 0x39,
//  0x54, 0xdb, 0xa3, 0x39, 0x83, 0xc0, 0xe3, 0x39, 0x20, 0xb3, 0x75, 0x39,
//  0x40, 0x00, 0x00, 0x00, 0x00, 0x00, 0x00, 0x00, 0x00, 0x00, 0x00, 0x00,
//  0x00, 0x00, 0x00, 0x00, 0x00, 0x00, 0x00, 0x00, 0x00, 0x00, 0x00, 0x00,
//  0x00, 0x00, 0x00, 0x00, 0x00, 0x00, 0x00, 0x00, 0x00, 0x00, 0x00, 0x00,
//  0x00, 0x00, 0x00, 0x00, 0x00, 0x00, 0x00, 0x00, 0x00, 0x00, 0x00, 0x00,
//  0x00, 0x00, 0x00, 0x00, 0x00, 0x00, 0x00, 0x00, 0x00, 0x00, 0x00, 0x00,
//  0x00, 0x00, 0x00, 0x00, 0x00, 0x00, 0x00, 0x00, 0x00, 0x00, 0x00, 0x00,
//  0x00, 0x00, 0x00, 0x00, 0x00, 0x00, 0x00, 0x00, 0x00, 0x00, 0x00, 0x00,
//  0x00, 0x00, 0x00, 0x00, 0x00, 0x00, 0x00, 0x00, 0x00, 0x00, 0x00, 0x00,
//  0x00, 0x00, 0x00, 0x00, 0x00, 0x00, 0x00, 0x00, 0x00, 0x00, 0x00, 0x00,
//  0x00, 0x00, 0x00, 0x00, 0x00, 0x00, 0x00, 0x00, 0x00, 0x00, 0x00, 0x00,
//  0x00, 0x00, 0x00, 0x00, 0x00, 0x00, 0x00, 0x00, 0x00, 0x00, 0x00, 0x00,
//  0x00, 0x00, 0x00, 0x00, 0x00, 0x00, 0x00, 0x00, 0x00, 0x00, 0x00, 0x00,
//  0x00, 0x00, 0x00, 0x00, 0x00, 0x00, 0x00, 0x00, 0x00, 0x00, 0x00, 0x00,
//  0x00, 0x00, 0x00, 0x00, 0x00, 0x00, 0x00, 0x00, 0x00, 0x00, 0x00, 0x00,
//  0x00, 0x00, 0x00, 0x00, 0x00, 0x00, 0x00, 0x00, 0x00, 0x00, 0x00, 0x00,
//  0x00, 0x00, 0x00, 0x00, 0x00, 0x00, 0x00, 0x00, 0x00, 0x00, 0x00, 0x00,
//  0x00, 0x00, 0x00, 0x00, 0x00, 0x00, 0x00, 0x00, 0x00, 0x00, 0x00, 0x00,
//  0x00, 0x00, 0x00, 0x00, 0x00, 0x00, 0x00, 0x00, 0x00, 0x00, 0x00, 0x00,
//  0x00, 0x00, 0x00, 0x00, 0x00, 0x00, 0x00, 0x00, 0x00, 0x00, 0x00, 0x00,
//  0x00, 0x00, 0x00, 0x00, 0x00, 0x00, 0x00, 0x00, 0x00, 0x00, 0x00, 0x00,
//  0x00, 0x00, 0x00, 0x00, 0x00, 0x00, 0x00, 0x00, 0x00, 0x00, 0x00, 0x00,
//  0x00, 0x00, 0x00, 0x00, 0x00, 0x00, 0x00, 0x00, 0x00, 0x00, 0x00, 0x00,
//  0x00, 0x00, 0x00, 0x00, 0x00, 0x00, 0x00, 0x00, 0x00, 0x00, 0x00, 0x00,
//  0x00, 0x00, 0x00, 0x00, 0x00, 0x00, 0x00, 0x00, 0x00, 0x00, 0x00, 0x00,
//  0x00, 0x00, 0x00, 0x00, 0x00, 0x00, 0x00, 0x00, 0x00, 0x00, 0x00, 0x00,
//  0x00, 0x00, 0x00, 0x00, 0x00, 0x00, 0x00, 0x00, 0x00, 0x00, 0x00, 0x00,
//  0x00, 0x00, 0x00, 0x00, 0x00, 0x00, 0x00, 0x00, 0x00, 0x00, 0x00, 0x00,
//  0x00, 0x00, 0x00, 0x00, 0x00, 0x00, 0x00, 0x00, 0x00, 0x00, 0x00, 0x00,
//  0x00, 0x00, 0x00, 0x00, 0x00, 0x00, 0x00, 0x00, 0x00, 0x00, 0x00, 0x00,
//  0x00, 0x00, 0x00, 0x00, 0x00, 0x00, 0x00, 0x00, 0x00, 0x00, 0x00, 0x00,
//  0x00, 0x00, 0x00, 0x00, 0x00, 0x00, 0x00, 0x00, 0x00, 0x00, 0x00, 0x00,
//  0x00, 0x00, 0x00, 0x00, 0x00, 0x00, 0x00, 0x00, 0x00, 0x00, 0x00, 0x00,
//  0x00, 0x00, 0x00, 0x00, 0x00, 0x00, 0x00, 0x00, 0x00, 0x00, 0x00, 0x00,
//  0x00, 0x00, 0x00, 0x00, 0x00, 0x00, 0x00, 0x00, 0x00, 0x00, 0x00, 0x00,
//  0x00, 0x00, 0x00, 0x00, 0x00, 0x00, 0x00, 0x00, 0x00, 0x00, 0x00, 0x00,
//  0x00, 0x00, 0x00, 0x00, 0x00, 0x00, 0x00, 0x00, 0x00, 0x00, 0x00, 0x00,
//  0x00, 0x00, 0x00, 0x00, 0x00, 0x00, 0x00, 0x00, 0x00, 0x00, 0x00, 0x00,
//  0x00, 0x00, 0x00, 0x00, 0x00, 0x00, 0x00, 0x00, 0x00, 0x00, 0x00, 0x00,
//  0x00, 0x00, 0x00, 0x00, 0x00, 0x00, 0x00, 0x00, 0x00, 0x00, 0x00, 0x00,
//  0x00, 0x00, 0x00, 0x00, 0x00, 0x00, 0x00, 0x00, 0x00, 0x00, 0x00, 0x00,
//  0x00, 0x00, 0x00, 0x00, 0x00, 0x00, 0x00, 0x00, 0x00, 0x00, 0x00, 0x00,
//  0x00, 0x00, 0x00, 0x00, 0x00, 0x00, 0x00, 0x00, 0x00, 0x00, 0x00, 0x00,
//  0x00, 0x00, 0x00, 0x00, 0x00, 0x00, 0x00, 0x00, 0x00, 0x00, 0x00, 0x00,
//  0x00, 0x00, 0x00, 0x00, 0x5e, 0x61, 0xff, 0xff, 0x04, 0x00, 0x00, 0x00,
//  0x00, 0x10, 0x00, 0x00, 0xe1, 0xcc, 0xb6, 0x21, 0x12, 0x62, 0x11, 0x07,
//  0xec, 0x3e, 0xed, 0x0d, 0xf8, 0x0d, 0xca, 0x33, 0x06, 0xdd, 0xef, 0x01,
//  0x23, 0xfc, 0xb8, 0xc1, 0x07, 0x4d, 0xef, 0x03, 0xe3, 0xfc, 0x9a, 0xf8,
//  0xee, 0xb5, 0xfa, 0x0b, 0xe5, 0x38, 0x81, 0x1e, 0x21, 0xf3, 0xc2, 0xd6,
//  0xec, 0x10, 0x43, 0xc0, 0xe4, 0x17, 0xfc, 0xbc, 0xf9, 0xc7, 0xf2, 0xc7,
//  0x14, 0xef, 0x25, 0xf5, 0x03, 0xd9, 0x3f, 0xf6, 0x29, 0x1a, 0xd5, 0x81,
//  0xee, 0x2a, 0x25, 0xfe, 0x05, 0xf4, 0xf9, 0x22, 0xdb, 0xec, 0x08, 0x31,
//  0x10, 0x1c, 0xc4, 0x1d, 0xd0, 0x14, 0xf9, 0x1c, 0xb0, 0x1d, 0x2d, 0xbf,
//  0x4d, 0xe0, 0x31, 0xf9, 0xf5, 0x3b, 0x25, 0x9f, 0xf1, 0xe3, 0x0e, 0xfa,
//  0xf8, 0x05, 0x17, 0x09, 0x05, 0x66, 0x04, 0x3b, 0x7a, 0xea, 0xfc, 0x14,
//  0xcb, 0x4a, 0xfc, 0x2a, 0x0e, 0xeb, 0x10, 0x1d, 0xe5, 0xfd, 0x07, 0xd7,
//  0x13, 0x2d, 0xc7, 0xd1, 0xe2, 0x15, 0xe9, 0xe7, 0x09, 0x8b, 0x10, 0xfd,
//  0x29, 0x1a, 0xd9, 0x1c, 0x28, 0xa5, 0xce, 0xeb, 0xcc, 0x81, 0xe9, 0x20,
//  0xd0, 0x37, 0xc1, 0xac, 0xcc, 0xfd, 0x1f, 0xfa, 0x38, 0xd2, 0x31, 0x0b,
//  0xad, 0xbd, 0xa8, 0x1f, 0xe6, 0xf5, 0x23, 0x15, 0x3f, 0xe1, 0x28, 0xa6,
//  0xdc, 0xad, 0xfe, 0x34, 0x12, 0xcf, 0xf7, 0x35, 0x4b, 0x1e, 0x0f, 0xdb,
//  0x00, 0xe8, 0x1a, 0xd3, 0xed, 0x12, 0x14, 0xfc, 0xcc, 0x0c, 0xff, 0x1e,
//  0x3c, 0x06, 0xd7, 0xe4, 0x33, 0xe8, 0x07, 0xea, 0xf6, 0xe7, 0x0e, 0x33,
//  0x1c, 0x17, 0x99, 0x3a, 0x37, 0x07, 0xd9, 0x88, 0x10, 0x44, 0xd0, 0x16,
//  0x2b, 0x81, 0x25, 0x3a, 0x70, 0x06, 0x25, 0xf7, 0x1f, 0xee, 0x9f, 0xf8,
//  0xd1, 0xd1, 0x1d, 0xfe, 0x13, 0xd0, 0x1f, 0xcb, 0xfd, 0x07, 0xdc, 0x93,
//  0xdc, 0xfb, 0x3e, 0x18, 0x0a, 0x33, 0xbd, 0x43, 0xcc, 0x01, 0x10, 0x1a,
//  0xe9, 0x11, 0x51, 0xbd, 0xff, 0xc2, 0xe3, 0x16, 0x43, 0xfc, 0xe0, 0x07,
//  0xcd, 0x35, 0xf1, 0x2c, 0xe9, 0xf5, 0x0e, 0x81, 0xf4, 0xf7, 0x03, 0xf7,
//  0xec, 0xfd, 0x23, 0x02, 0x17, 0x2f, 0xf0, 0xfb, 0x2a, 0x2a, 0x0b, 0x18,
//  0x23, 0x2f, 0x29, 0xc3, 0x0e, 0x11, 0xfd, 0x09, 0xf9, 0xaf, 0x1e, 0xcc,
//  0xf1, 0xea, 0xfb, 0xd8, 0x06, 0x2e, 0x01, 0xfc, 0x23, 0x1f, 0x08, 0xf2,
//  0x18, 0x23, 0x14, 0xed, 0x55, 0x18, 0xea, 0x25, 0xfd, 0x04, 0xf1, 0x19,
//  0x19, 0x08, 0xdb, 0xb2, 0x27, 0xe8, 0x18, 0xc5, 0x26, 0x19, 0xf0, 0x1b,
//  0xee, 0x18, 0xc0, 0x1b, 0x43, 0x0d, 0xfc, 0x08, 0x1c, 0x1b, 0xf7, 0x0f,
//  0x9d, 0x1e, 0xbe, 0xe8, 0xdd, 0xac, 0xfb, 0xad, 0xef, 0xec, 0xf2, 0x1a,
//  0xfb, 0x12, 0x2c, 0x1b, 0xef, 0x10, 0xc4, 0x91, 0x20, 0xdd, 0x1e, 0x81,
//  0xe1, 0x1a, 0xcd, 0xdd, 0x81, 0xec, 0xc0, 0x97, 0xe5, 0xf9, 0x1c, 0xa6,
//  0xb8, 0x2c, 0x04, 0xef, 0x3e, 0x04, 0xfe, 0x0b, 0xbe, 0x33, 0x2c, 0x38,
//  0xcb, 0x13, 0x11, 0x16, 0xd6, 0xf5, 0x45, 0xd1, 0x0f, 0x0e, 0x2f, 0x12,
//  0xc4, 0x27, 0x22, 0xd9, 0x07, 0x21, 0x40, 0x04, 0x22, 0xd4, 0xf5, 0x32,
//  0x12, 0x02, 0xf1, 0x14, 0x07, 0x08, 0xe7, 0x06, 0xe6, 0xf6, 0x05, 0xd3,
//  0xe4, 0xe1, 0xe2, 0x2f, 0xc8, 0xfd, 0xf5, 0x1f, 0x21, 0x46, 0xdb, 0x81,
//  0xcb, 0xdf, 0x18, 0x98, 0xac, 0xd2, 0xd3, 0x25, 0xc3, 0x24, 0x38, 0x27,
//  0xb0, 0x47, 0xe2, 0x3e, 0xa6, 0x2f, 0xe8, 0x0c, 0xa4, 0x28, 0x72, 0xef,
//  0x4a, 0x32, 0x40, 0x41, 0x13, 0x29, 0xef, 0xb1, 0x14, 0x27, 0x34, 0xda,
//  0xfb, 0xfc, 0x31, 0x6b, 0x32, 0x31, 0x0b, 0x0f, 0x19, 0x26, 0xf4, 0x5f,
//  0xed, 0xfc, 0x24, 0xdb, 0xc6, 0x2c, 0x26, 0x41, 0x1d, 0xf8, 0xa9, 0xea,
//  0x06, 0xef, 0x3d, 0xff, 0xf2, 0x31, 0x42, 0xed, 0x26, 0x94, 0x01, 0xa8,
//  0xe8, 0xc4, 0xcd, 0x10, 0xec, 0x0c, 0x1d, 0x25, 0x07, 0xb8, 0xe1, 0xf5,
//  0x1f, 0x68, 0xcd, 0x2e, 0xda, 0x13, 0xef, 0xe6, 0xb0, 0xfa, 0xd1, 0xbe,
//  0x20, 0x53, 0x1d, 0x01, 0x01, 0xd5, 0xd3, 0xe8, 0x06, 0xf6, 0xbe, 0x3e,
//  0x21, 0xfd, 0x06, 0xa2, 0x15, 0x9f, 0x16, 0xce, 0xd9, 0xe7, 0x23, 0x81,
//  0xd4, 0x4d, 0x10, 0xee, 0x0a, 0xdf, 0xd8, 0x05, 0xaf, 0x02, 0x1a, 0x17,
//  0x22, 0x07, 0xff, 0xa4, 0x2a, 0x37, 0xe2, 0xde, 0xde, 0xe0, 0xec, 0x2e,
//  0x4e, 0xb9, 0xd6, 0x12, 0x10, 0x2a, 0x12, 0x1f, 0x81, 0xd4, 0xab, 0x10,
//  0xb2, 0xfc, 0xe5, 0xac, 0xe4, 0xec, 0x23, 0x06, 0xf4, 0xca, 0xe3, 0x18,
//  0xfa, 0x04, 0xe6, 0x35, 0x25, 0xdc, 0x22, 0xdf, 0xfe, 0xb5, 0xc8, 0xbc,
//  0xf2, 0x0a, 0x18, 0x20, 0xb7, 0x29, 0x33, 0x03, 0xfa, 0xe6, 0x81, 0x07,
//  0x70, 0xd4, 0x19, 0x32, 0xc4, 0x3b, 0x2f, 0xe3, 0x9f, 0xb0, 0xa3, 0x1b,
//  0xfb, 0x37, 0xe7, 0xba, 0x2d, 0x4c, 0xfd, 0x28, 0xfa, 0xd5, 0x51, 0xe0,
//  0x4e, 0xbd, 0xc6, 0xf1, 0xfd, 0x9f, 0xb8, 0x86, 0x1e, 0x20, 0x05, 0x18,
//  0x33, 0xc8, 0x28, 0xbf, 0xe9, 0x22, 0x86, 0x38, 0xf1, 0x3c, 0xf0, 0xa1,
//  0xc6, 0x11, 0x1c, 0x09, 0x12, 0x0c, 0xd1, 0xb2, 0xd5, 0xff, 0xc3, 0x03,
//  0x03, 0x8f, 0xc1, 0xdc, 0x25, 0x02, 0x43, 0x13, 0xf1, 0x30, 0xe4, 0x38,
//  0xbd, 0xcb, 0x84, 0x17, 0x05, 0x20, 0xb3, 0x00, 0xa9, 0x50, 0x3a, 0x0c,
//  0x9f, 0xe0, 0xed, 0xa9, 0xe4, 0x9f, 0x06, 0xc1, 0xeb, 0x06, 0xc7, 0xef,
//  0x0b, 0xe3, 0x27, 0xfc, 0xc9, 0x24, 0x47, 0x19, 0x35, 0xf7, 0xed, 0x29,
//  0x0e, 0x0d, 0xe8, 0xe2, 0xd2, 0xb8, 0x81, 0x53, 0xca, 0xba, 0xc1, 0xf4,
//  0xd6, 0x1f, 0xa9, 0x44, 0xc6, 0x81, 0x8c, 0x0c, 0xe2, 0x20, 0x2c, 0x07,
//  0xee, 0xd0, 0xf5, 0x19, 0xb8, 0x1b, 0xe7, 0x19, 0x32, 0xdd, 0x44, 0x9e,
//  0xd1, 0xd1, 0xdd, 0x2e, 0xa8, 0x2f, 0x79, 0x58, 0x54, 0x49, 0x2d, 0x09,
//  0xd8, 0xa4, 0xfb, 0xf9, 0x0d, 0xb8, 0x29, 0x03, 0x0a, 0xeb, 0x25, 0xd1,
//  0xba, 0xe6, 0xe3, 0xf3, 0x48, 0xa2, 0x30, 0x15, 0x31, 0x9f, 0x26, 0x1a,
//  0x3f, 0x3d, 0x29, 0xf5, 0x45, 0x1c, 0x1a, 0xb9, 0xee, 0xfe, 0x16, 0xb3,
//  0xa8, 0x23, 0xdb, 0xab, 0x20, 0x0f, 0xd3, 0x3f, 0x14, 0xac, 0xcf, 0x1b,
//  0xe1, 0xc5, 0x07, 0x55, 0x16, 0x16, 0x11, 0x23, 0x02, 0xd2, 0xdd, 0x38,
//  0x2a, 0xd1, 0x04, 0xe5, 0x47, 0x20, 0x8b, 0x0f, 0xe2, 0x28, 0xf6, 0xee,
//  0xa5, 0x37, 0xc7, 0x2a, 0x0e, 0x0b, 0x42, 0xd9, 0xa6, 0xa8, 0x43, 0xfb,
//  0x35, 0x07, 0xea, 0xf8, 0x29, 0x81, 0x24, 0xce, 0x49, 0x1d, 0xec, 0xbf,
//  0xe2, 0x0a, 0xc1, 0x1b, 0x17, 0x0b, 0x25, 0x0b, 0x13, 0xe2, 0xf9, 0xcb,
//  0xf1, 0xe7, 0xf2, 0x12, 0xfe, 0xf9, 0xd2, 0x1b, 0x0b, 0x07, 0x16, 0xf0,
//  0xb6, 0x18, 0xfd, 0xf1, 0x43, 0x11, 0x00, 0x49, 0x0d, 0x00, 0x18, 0x30,
//  0x1b, 0xf7, 0x0b, 0x44, 0x2f, 0xac, 0xf5, 0x0c, 0xfd, 0xf9, 0x00, 0xff,
//  0x0d, 0x13, 0xfe, 0xe0, 0xda, 0x81, 0xce, 0x21, 0xf8, 0x0d, 0x36, 0x9e,
//  0x15, 0xe0, 0x14, 0xc6, 0x13, 0x01, 0x07, 0xce, 0xfa, 0xf1, 0xd5, 0x06,
//  0x07, 0xca, 0x9e, 0xfb, 0x01, 0xf0, 0x08, 0xe8, 0x26, 0x25, 0x2f, 0x0b,
//  0x1d, 0xd1, 0x38, 0xd5, 0xba, 0x24, 0x1a, 0xf6, 0xf6, 0xd1, 0xef, 0x0c,
//  0x18, 0x2d, 0xc4, 0x11, 0xc8, 0xcd, 0x81, 0xe1, 0x08, 0xf2, 0x10, 0xb1,
//  0xd8, 0x42, 0xbb, 0xe1, 0x1c, 0x32, 0x18, 0x13, 0xe9, 0x2e, 0x0d, 0x0d,
//  0xfd, 0x0e, 0x58, 0x3f, 0x2f, 0x33, 0xd8, 0xe3, 0xcf, 0x4d, 0x04, 0x08,
//  0xcc, 0x46, 0x4b, 0x0f, 0x67, 0x14, 0x12, 0xef, 0x04, 0x0f, 0xe0, 0x0f,
//  0x3d, 0xd8, 0xf6, 0xb6, 0x22, 0xa4, 0xb0, 0xed, 0x7f, 0x31, 0xd9, 0x02,
//  0x27, 0x07, 0xa7, 0xe1, 0x22, 0xcf, 0xef, 0xe3, 0xaf, 0xff, 0x20, 0x49,
//  0xc8, 0x3f, 0xd7, 0xfe, 0xaa, 0x49, 0x16, 0xd3, 0x06, 0x3a, 0xeb, 0xca,
//  0xed, 0x00, 0x76, 0x9b, 0x0b, 0xb3, 0xe4, 0xc6, 0x29, 0xc7, 0x15, 0x21,
//  0x38, 0x27, 0xcd, 0xca, 0xb7, 0xd5, 0x69, 0xb7, 0xa3, 0x1b, 0x19, 0xff,
//  0x13, 0xec, 0xfb, 0xaf, 0x00, 0xbf, 0xe3, 0xed, 0xe9, 0x6e, 0x00, 0x0c,
//  0x22, 0xf9, 0xf8, 0xf9, 0x51, 0xc6, 0xd1, 0x0c, 0x0f, 0x0a, 0x9a, 0xcc,
//  0xd6, 0x16, 0x03, 0xf9, 0x31, 0xaa, 0x15, 0xeb, 0x94, 0x22, 0x14, 0xe0,
//  0x20, 0xf5, 0x18, 0xe4, 0xdb, 0xda, 0xcf, 0x21, 0x02, 0x81, 0xfb, 0x0f,
//  0xea, 0x68, 0x1d, 0xab, 0xc4, 0x2d, 0xf9, 0xe4, 0x1c, 0xf3, 0xdc, 0x81,
//  0x15, 0x15, 0xec, 0x51, 0x0b, 0x04, 0x46, 0xd6, 0x03, 0x1d, 0xd8, 0x37,
//  0xc9, 0x14, 0x01, 0xf2, 0xb9, 0xbb, 0x1c, 0x28, 0x2f, 0x5d, 0xec, 0x18,
//  0x5d, 0xf9, 0xff, 0x13, 0x0d, 0x35, 0x2a, 0xed, 0xf3, 0x01, 0xd1, 0x8f,
//  0xea, 0x59, 0xa5, 0x27, 0x02, 0xf7, 0x31, 0x0b, 0xd3, 0x47, 0x27, 0x3d,
//  0x29, 0x37, 0xad, 0xbb, 0x39, 0x06, 0xcd, 0x1f, 0xf9, 0xa9, 0xe6, 0xef,
//  0xf6, 0x9b, 0xe6, 0xb9, 0xaa, 0x3e, 0x4c, 0xe4, 0x1a, 0xbc, 0xb1, 0xd1,
//  0x01, 0x32, 0x05, 0xe8, 0x37, 0xe6, 0xed, 0x20, 0xea, 0xfe, 0x42, 0x02,
//  0x2e, 0xf0, 0xeb, 0x43, 0x4c, 0x0b, 0xf3, 0xa1, 0x19, 0x82, 0x19, 0x02,
//  0xe8, 0xfd, 0x28, 0x81, 0xdc, 0x0c, 0xae, 0x18, 0x21, 0xf4, 0x30, 0xf1,
//  0x0d, 0x30, 0xf8, 0xac, 0xce, 0xd2, 0x0f, 0xec, 0x89, 0xf2, 0x2e, 0x0b,
//  0xac, 0x11, 0x40, 0x8e, 0xfb, 0xe0, 0xce, 0x05, 0x08, 0xeb, 0x5e, 0xed,
//  0x81, 0xbf, 0x68, 0x06, 0xa6, 0xe1, 0x09, 0x4b, 0xa9, 0x1e, 0x0b, 0xfa,
//  0xb2, 0x32, 0xd5, 0xd4, 0x2b, 0x5c, 0x07, 0x09, 0x02, 0x06, 0x4c, 0xb0,
//  0x21, 0x46, 0x01, 0x69, 0x2a, 0x0e, 0xf6, 0x4e, 0xe2, 0x21, 0xe8, 0x8f,
//  0xe4, 0xe4, 0xad, 0xbb, 0xba, 0x62, 0x28, 0xec, 0x00, 0xc7, 0xe5, 0x2d,
//  0xb9, 0x1c, 0x2a, 0xbb, 0x11, 0x46, 0x29, 0x04, 0x27, 0xfa, 0xd0, 0x29,
//  0xed, 0x26, 0xc3, 0xe6, 0xf8, 0xff, 0x10, 0x9f, 0xc8, 0xc5, 0x1f, 0x2c,
//  0x31, 0xfe, 0xd6, 0xd7, 0xc4, 0xf0, 0xe7, 0x0e, 0x32, 0x10, 0xa4, 0x3e,
//  0x9a, 0x40, 0xea, 0x09, 0xfe, 0x20, 0x0c, 0x0f, 0xd5, 0xd0, 0x81, 0xeb,
//  0xc9, 0x12, 0xec, 0xf5, 0xe0, 0x32, 0xf8, 0xdd, 0xba, 0x2d, 0xd9, 0xfa,
//  0x0c, 0xb6, 0x1d, 0x2b, 0xf5, 0xcd, 0x3e, 0xcd, 0xf7, 0xde, 0x3e, 0x18,
//  0xa5, 0x26, 0xf9, 0x11, 0x63, 0xcf, 0x1b, 0xa9, 0x02, 0x81, 0xfd, 0x08,
//  0x09, 0xfb, 0x96, 0xec, 0x0a, 0xda, 0xde, 0x10, 0x10, 0x29, 0xac, 0x10,
//  0xb8, 0x34, 0xe9, 0xfb, 0x3d, 0x2b, 0x3f, 0xdc, 0xcd, 0xfc, 0xc8, 0x2c,
//  0xb3, 0xb7, 0xac, 0xe2, 0x23, 0x1e, 0xfd, 0x89, 0xdd, 0xd8, 0x2b, 0x0f,
//  0xf5, 0x19, 0xcb, 0xc4, 0xce, 0xbd, 0x48, 0xba, 0xf5, 0x46, 0x3d, 0x1b,
//  0x81, 0x1b, 0xa8, 0x0e, 0xbb, 0xd3, 0x14, 0x0a, 0x38, 0x20, 0x1a, 0x16,
//  0x24, 0x13, 0xd2, 0x10, 0xc1, 0xe0, 0x0c, 0xdd, 0xad, 0x1c, 0xeb, 0xf1,
//  0xe5, 0xfc, 0xf7, 0xe2, 0x55, 0x24, 0x0f, 0x0a, 0x02, 0xe3, 0x1c, 0x1f,
//  0x48, 0x27, 0xc8, 0x00, 0x24, 0xd1, 0x32, 0x21, 0xdf, 0x24, 0xbf, 0xed,
//  0x14, 0xe6, 0x50, 0xfe, 0x0f, 0xc5, 0xff, 0x06, 0x2b, 0x03, 0x09, 0xb8,
//  0x1c, 0xd1, 0x56, 0xb6, 0x31, 0x0c, 0x97, 0xdd, 0xa7, 0x04, 0xfe, 0x15,
//  0xe5, 0x07, 0xed, 0xe9, 0xa7, 0x19, 0xe4, 0xe6, 0xe9, 0x06, 0xcc, 0xfe,
//  0xe2, 0x1e, 0x0f, 0x02, 0xde, 0x2a, 0x4c, 0xf7, 0xee, 0x16, 0x13, 0xcb,
//  0xd5, 0xfe, 0x02, 0x0c, 0x1e, 0x0d, 0x0b, 0x20, 0xc3, 0xde, 0x37, 0xd2,
//  0xdb, 0x07, 0x81, 0x14, 0x3c, 0xdc, 0x28, 0x18, 0xcc, 0xfd, 0x0f, 0x5e,
//  0x6a, 0x37, 0xfb, 0x0f, 0xe2, 0x33, 0xc3, 0xe2, 0x38, 0x2e, 0x33, 0xfc,
//  0xd2, 0xc6, 0x12, 0x12, 0x29, 0xc2, 0xb5, 0xfe, 0xda, 0x06, 0x26, 0x46,
//  0xec, 0xfe, 0x03, 0x47, 0x37, 0xee, 0xf8, 0x08, 0xd5, 0xec, 0x0a, 0xa8,
//  0x28, 0xf0, 0x4b, 0xf1, 0xf6, 0x4d, 0x17, 0xf8, 0x33, 0xb4, 0xc6, 0x29,
//  0x0a, 0x2e, 0x22, 0xfe, 0x17, 0x47, 0x97, 0x81, 0x42, 0xb9, 0xdb, 0x1f,
//  0x3d, 0xe4, 0x33, 0x1c, 0x1a, 0x10, 0x43, 0x3f, 0xd6, 0x2f, 0xb6, 0xf2,
//  0x21, 0x14, 0x01, 0xae, 0x21, 0xac, 0x1c, 0xe5, 0x01, 0x0f, 0xd5, 0x2b,
//  0xcc, 0x9d, 0x05, 0xf1, 0x81, 0x0f, 0x26, 0x0e, 0xfe, 0x2e, 0x11, 0x28,
//  0xd5, 0x25, 0x40, 0x17, 0x56, 0x15, 0x09, 0x13, 0x27, 0x1c, 0xdf, 0xd8,
//  0x2c, 0xdb, 0x20, 0xc6, 0xef, 0xdc, 0xe7, 0x1f, 0x3d, 0x25, 0x14, 0xcd,
//  0x1d, 0xc5, 0x10, 0x30, 0x35, 0xde, 0x38, 0x0e, 0x28, 0xf7, 0x27, 0x26,
//  0xd2, 0xf9, 0xd1, 0xfe, 0x13, 0x02, 0x1f, 0xbf, 0xd7, 0x04, 0x35, 0xfe,
//  0xdf, 0xe3, 0x3c, 0xc0, 0x04, 0xcb, 0x24, 0x12, 0x06, 0xfd, 0xfc, 0xe6,
//  0xf3, 0xfb, 0x39, 0xdd, 0xed, 0x2a, 0x07, 0xec, 0x14, 0xd9, 0xdd, 0x1c,
//  0x1a, 0x07, 0xe6, 0x36, 0xfd, 0x14, 0x0c, 0x38, 0x03, 0xef, 0x1b, 0x02,
//  0x04, 0x15, 0x22, 0xe4, 0x0f, 0xb2, 0x1b, 0xf6, 0xfb, 0x03, 0x17, 0xbd,
//  0x81, 0x20, 0xdb, 0x04, 0x1f, 0x08, 0xf0, 0x09, 0x0d, 0x81, 0xe0, 0xc1,
//  0x3f, 0xc0, 0xe4, 0xde, 0xbb, 0x15, 0xf8, 0x29, 0x1e, 0x09, 0xf0, 0x0b,
//  0xaa, 0x19, 0x0a, 0xb4, 0xa0, 0xee, 0x05, 0xe4, 0xd3, 0x05, 0x36, 0x18,
//  0x05, 0x3c, 0x08, 0xe6, 0xfd, 0xc9, 0x00, 0x48, 0x57, 0x39, 0xf0, 0xe2,
//  0xac, 0xc2, 0x25, 0xfe, 0xe8, 0x2a, 0xca, 0xb6, 0x49, 0x30, 0x08, 0x01,
//  0x94, 0xc0, 0x18, 0xf3, 0x1b, 0xd4, 0x9a, 0xf8, 0x17, 0xa0, 0x20, 0xaf,
//  0x70, 0x09, 0xff, 0xc7, 0xd0, 0x4e, 0x3f, 0xd3, 0x19, 0x2e, 0x70, 0xef,
//  0xae, 0x26, 0x34, 0xfd, 0x43, 0x5d, 0x61, 0xf8, 0xb0, 0x04, 0xb2, 0x1f,
//  0x70, 0xb0, 0x38, 0xa8, 0x05, 0x52, 0x18, 0xc9, 0x20, 0xb9, 0x07, 0xf8,
//  0xbf, 0x8a, 0x2b, 0x21, 0x3b, 0x66, 0x03, 0x1f, 0x81, 0x9a, 0x2b, 0x35,
//  0x4d, 0x06, 0xe0, 0x17, 0x35, 0xc8, 0x5a, 0x17, 0x62, 0xf5, 0xd8, 0x37,
//  0xa9, 0x01, 0x49, 0x6a, 0xd9, 0x0b, 0xe1, 0xdb, 0xfc, 0xee, 0xf8, 0xd5,
//  0xb6, 0x4d, 0x1d, 0xd2, 0x39, 0xc3, 0x10, 0x50, 0xe0, 0x13, 0xed, 0x24,
//  0xbf, 0xc4, 0xed, 0x27, 0xcd, 0xe4, 0x45, 0xda, 0xe8, 0xe5, 0x10, 0x12,
//  0x2d, 0xb5, 0xa6, 0xea, 0xa9, 0x2e, 0xb3, 0x47, 0x98, 0xdc, 0x03, 0x0f,
//  0xf9, 0x25, 0x1c, 0xfc, 0x81, 0x22, 0xf7, 0xf1, 0x09, 0x1f, 0x55, 0x2b,
//  0x19, 0xa9, 0x51, 0xfe, 0x40, 0x01, 0x21, 0xf7, 0x16, 0x20, 0xf1, 0xde,
//  0xde, 0xc7, 0x14, 0xf3, 0xf8, 0xfd, 0x07, 0xed, 0xda, 0x21, 0xe7, 0xa2,
//  0xec, 0x08, 0x26, 0x1c, 0x17, 0xe4, 0x10, 0xe6, 0xde, 0xe5, 0x19, 0xf9,
//  0xf5, 0xbe, 0xd0, 0x0b, 0xd4, 0x03, 0x2a, 0x07, 0xec, 0xf0, 0x0a, 0xff,
//  0xf4, 0xd9, 0xdb, 0xf2, 0x08, 0x04, 0xf9, 0x17, 0x1f, 0xa5, 0x1f, 0xf3,
//  0xd9, 0xcf, 0xe5, 0x0e, 0xec, 0xd8, 0xfc, 0xff, 0x0b, 0x7f, 0x06, 0xd4,
//  0xfe, 0x06, 0xc7, 0x24, 0x0c, 0xe0, 0xbe, 0x16, 0xc4, 0xbc, 0x14, 0x7c,
//  0xa8, 0x5b, 0xbc, 0xe8, 0x17, 0x88, 0x16, 0x1e, 0x2a, 0x26, 0x43, 0x0e,
//  0x67, 0xbf, 0xe3, 0x3b, 0xee, 0x17, 0x39, 0xeb, 0xf2, 0xfd, 0xde, 0x11,
//  0x1e, 0xb1, 0x2d, 0x2b, 0x00, 0x27, 0x32, 0x10, 0xde, 0xb5, 0x4e, 0x73,
//  0x34, 0x2a, 0x81, 0x1a, 0x32, 0xda, 0x0f, 0x0d, 0x10, 0xbe, 0xa2, 0x62,
//  0xfb, 0x0e, 0x8d, 0x2d, 0x81, 0x13, 0xb7, 0xed, 0x3a, 0x0b, 0x31, 0xe4,
//  0xee, 0x41, 0xf1, 0xee, 0xee, 0xd4, 0x16, 0x0f, 0xd1, 0x29, 0xf6, 0x30,
//  0x12, 0x1f, 0xdc, 0x08, 0xba, 0x2f, 0x00, 0xd5, 0x30, 0x1b, 0xd9, 0x52,
//  0xfd, 0xca, 0x22, 0xd3, 0x02, 0x14, 0x29, 0x47, 0x33, 0xb0, 0x15, 0x03,
//  0xc8, 0x0a, 0xf8, 0xfc, 0x05, 0x10, 0xde, 0xb2, 0xfb, 0x1a, 0xde, 0xf7,
//  0xbd, 0xfd, 0xed, 0x0b, 0xfe, 0x03, 0x56, 0xe0, 0xd6, 0x2d, 0xed, 0xc8,
//  0xea, 0x31, 0xeb, 0x81, 0xf3, 0x1a, 0xd6, 0xee, 0xbd, 0xcd, 0x2c, 0xed,
//  0xcd, 0x31, 0xc2, 0xef, 0xf5, 0x07, 0x20, 0xea, 0xff, 0x8e, 0x13, 0xf4,
//  0xf4, 0x07, 0x15, 0xcf, 0x06, 0xc0, 0xe5, 0x28, 0x38, 0x55, 0x41, 0xe9,
//  0x13, 0xe5, 0x36, 0xb4, 0xfe, 0x3d, 0x02, 0x12, 0x2d, 0xde, 0x20, 0xe5,
//  0xe1, 0xe4, 0x43, 0x1c, 0x43, 0x0d, 0xcb, 0xe1, 0xd8, 0xfe, 0xc6, 0xcf,
//  0x53, 0x34, 0xdd, 0xd9, 0xa4, 0xe8, 0xfb, 0xfd, 0xfb, 0xad, 0x4b, 0xf2,
//  0xf1, 0xca, 0x10, 0xc7, 0x18, 0x2b, 0x31, 0x32, 0x81, 0xdc, 0x0d, 0x09,
//  0x15, 0xc3, 0xd3, 0x0f, 0xf8, 0x96, 0x5a, 0xaa, 0xf6, 0xf4, 0x34, 0xf6,
//  0xf2, 0xe6, 0xb5, 0xa7, 0xd4, 0x42, 0xac, 0xe7, 0x21, 0xe4, 0x25, 0xf3,
//  0xdf, 0xf7, 0x07, 0x2d, 0xf6, 0xf4, 0x2b, 0x2d, 0x0a, 0xe4, 0x0f, 0x62,
//  0x06, 0xc8, 0xe8, 0x4d, 0xcf, 0x31, 0xed, 0xa9, 0x07, 0xe8, 0xc5, 0xbc,
//  0xaf, 0x0b, 0xe2, 0x03, 0x3f, 0x0c, 0x99, 0x9d, 0xec, 0xc1, 0x39, 0x12,
//  0x21, 0xfb, 0x41, 0xee, 0xda, 0xf3, 0x27, 0xea, 0x04, 0xd0, 0x05, 0xfc,
//  0x81, 0xaf, 0xf0, 0xf8, 0xb3, 0x34, 0xc6, 0x02, 0xf0, 0x14, 0xdc, 0x8d,
//  0x52, 0x01, 0x14, 0xf2, 0x11, 0x1c, 0x3b, 0x13, 0x26, 0xb8, 0x57, 0x15,
//  0xa0, 0xb3, 0x0f, 0xc7, 0x30, 0x51, 0x1b, 0x64, 0xc6, 0x33, 0xe1, 0xf1,
//  0x0b, 0xd5, 0xf6, 0x81, 0xea, 0x49, 0x34, 0xbb, 0x05, 0xcd, 0x1a, 0xb7,
//  0xfb, 0x31, 0xf3, 0xe3, 0xf2, 0xfc, 0x53, 0xf9, 0xf8, 0xa7, 0x55, 0xb7,
//  0x10, 0xd0, 0x15, 0xe2, 0x52, 0x16, 0x0c, 0x1b, 0x36, 0xa9, 0x23, 0x83,
//  0xd4, 0xd2, 0x30, 0xec, 0x4c, 0x35, 0xd4, 0x32, 0x0c, 0xfa, 0x3e, 0x02,
//  0xc1, 0x21, 0x3c, 0x22, 0xd2, 0xd8, 0xdc, 0xe1, 0xfd, 0xe5, 0xf0, 0xcc,
//  0xfe, 0x0a, 0x81, 0x05, 0x17, 0x3f, 0x1b, 0x23, 0x05, 0x1f, 0x50, 0x0c,
//  0xe1, 0xf7, 0xe1, 0xd6, 0xb3, 0x27, 0xd2, 0x01, 0x13, 0xfc, 0xfd, 0xa8,
//  0xb3, 0x07, 0x16, 0x0f, 0x47, 0x2a, 0x0c, 0x3c, 0xf0, 0xf5, 0xe7, 0xc0,
//  0x00, 0x2a, 0x02, 0xfb, 0x47, 0xd5, 0x09, 0xc6, 0xad, 0x55, 0xcc, 0x25,
//  0x2d, 0x26, 0x37, 0x88, 0x0a, 0x21, 0xe0, 0x26, 0xe8, 0x08, 0xc7, 0xd2,
//  0xd0, 0xdd, 0xf9, 0xd9, 0xe7, 0x47, 0x23, 0xcd, 0xc6, 0xe1, 0x1e, 0xc4,
//  0x18, 0xec, 0xbd, 0xe9, 0xdc, 0xbe, 0x00, 0xfc, 0xce, 0x31, 0xe3, 0x06,
//  0xee, 0x11, 0xe9, 0xf2, 0x08, 0x15, 0xae, 0xe2, 0xfb, 0xff, 0x16, 0xcf,
//  0x12, 0x2c, 0x98, 0xd5, 0xdd, 0xcf, 0xd3, 0x14, 0xd8, 0xfb, 0xfa, 0xf0,
//  0x4c, 0x43, 0x3f, 0xfd, 0xe5, 0x9d, 0x4f, 0xdd, 0xe6, 0x3a, 0xff, 0x31,
//  0x4e, 0x81, 0x41, 0xa7, 0x36, 0xc7, 0x3f, 0xcb, 0x0b, 0x09, 0xfc, 0x10,
//  0x00, 0x05, 0xf9, 0x1f, 0x24, 0xff, 0x1e, 0xed, 0x17, 0x81, 0x17, 0x21,
//  0xfc, 0x1a, 0xfc, 0x06, 0xf7, 0xe0, 0xed, 0xeb, 0x1b, 0xef, 0xfc, 0x17,
//  0x0e, 0x01, 0x27, 0x0e, 0x21, 0xf8, 0x27, 0xf0, 0x16, 0xec, 0x01, 0x10,
//  0x03, 0xf8, 0x0b, 0x16, 0x04, 0x0b, 0xcf, 0x0f, 0x14, 0xc8, 0xfd, 0xa0,
//  0x0e, 0xd7, 0x06, 0x0e, 0x01, 0xf6, 0xc3, 0x0a, 0xce, 0xda, 0x27, 0x05,
//  0xe3, 0x33, 0xda, 0x01, 0x3b, 0xa8, 0x26, 0xa4, 0xe7, 0x5c, 0x27, 0x1a,
//  0xd9, 0xbd, 0xf6, 0x81, 0x3d, 0x16, 0xf3, 0x0c, 0xf6, 0x3e, 0xc8, 0x01,
//  0xdf, 0xea, 0x22, 0xbd, 0x22, 0x06, 0x07, 0xcf, 0xa0, 0x12, 0xf7, 0xc2,
//  0x07, 0x07, 0x8c, 0xd9, 0xba, 0x18, 0xae, 0x0a, 0xd3, 0x20, 0xc5, 0x63,
//  0x2a, 0xaa, 0x19, 0xd7, 0x33, 0x04, 0x02, 0x0a, 0xc9, 0xe1, 0xe9, 0x43,
//  0xbc, 0x58, 0x95, 0xf5, 0xd2, 0xeb, 0x11, 0xbb, 0x25, 0x05, 0x45, 0x0a,
//  0xe4, 0xf1, 0x02, 0xdc, 0xec, 0x21, 0xf0, 0x10, 0xd9, 0xe3, 0x03, 0x06,
//  0xe1, 0x12, 0xfb, 0x0f, 0xed, 0x02, 0xdf, 0xe8, 0x10, 0xec, 0x0a, 0x27,
//  0x05, 0x04, 0xc2, 0xdb, 0x21, 0x16, 0x1f, 0x3c, 0x2b, 0xbc, 0x09, 0x23,
//  0x29, 0x2b, 0x02, 0x14, 0x1a, 0x05, 0x05, 0x19, 0x05, 0xfb, 0xd7, 0xf9,
//  0xf8, 0x35, 0x05, 0x81, 0x2a, 0x2c, 0xe7, 0xa9, 0x40, 0x2e, 0xf8, 0xbe,
//  0x24, 0xc3, 0x00, 0x0b, 0xe2, 0x10, 0x9a, 0x4f, 0xf7, 0x35, 0xcf, 0x20,
//  0x2c, 0x11, 0x7f, 0xa4, 0xda, 0x20, 0xe4, 0xf7, 0xc7, 0xf1, 0xe3, 0x08,
//  0xe7, 0xfc, 0x31, 0xbb, 0x1c, 0x08, 0xe9, 0x0c, 0xf5, 0x0c, 0xc9, 0x07,
//  0xbf, 0x07, 0x48, 0xd7, 0xc7, 0x43, 0xdf, 0x0f, 0x20, 0x37, 0xe8, 0x29,
//  0x22, 0x05, 0x0b, 0xf2, 0xdf, 0x49, 0x1c, 0xa4, 0x70, 0x0f, 0xd4, 0xa1,
//  0xe2, 0x81, 0xe8, 0xfc, 0x0a, 0x05, 0xbb, 0xcf, 0x0e, 0xc1, 0x1b, 0x2a,
//  0xe7, 0xe1, 0x0d, 0x04, 0xfe, 0x10, 0x0f, 0x01, 0x23, 0xfc, 0x2d, 0xc1,
//  0xf7, 0xff, 0x1e, 0xe1, 0xf9, 0x2a, 0x3d, 0xaf, 0xf3, 0x0c, 0x09, 0x0d,
//  0xd7, 0xfc, 0x04, 0xc2, 0x0a, 0x16, 0x2e, 0xe7, 0xf4, 0x16, 0xeb, 0xf5,
//  0x3d, 0x07, 0x0a, 0x22, 0x04, 0xe7, 0xbb, 0xd1, 0xfd, 0x2d, 0xdf, 0xec,
//  0x26, 0x68, 0x16, 0xd7, 0x19, 0xfb, 0x38, 0xff, 0x25, 0x19, 0x0a, 0xb6,
//  0xd7, 0x31, 0xe5, 0x92, 0x21, 0xd1, 0xd1, 0xf9, 0xf3, 0xfc, 0xd4, 0x81,
//  0xf4, 0x25, 0xff, 0x14, 0x15, 0xc4, 0x19, 0x50, 0xfe, 0x39, 0xf4, 0x1f,
//  0x3c, 0xad, 0x07, 0xbb, 0xf0, 0x3a, 0x2d, 0xf4, 0x05, 0xf9, 0xed, 0xcb,
//  0xf8, 0xee, 0x9e, 0x1b, 0xc4, 0x1b, 0xea, 0xe4, 0x94, 0x0e, 0x12, 0x2b,
//  0xd3, 0xc9, 0xb4, 0x14, 0xc8, 0xee, 0xe7, 0x21, 0xfa, 0xfd, 0xfb, 0xce,
//  0x2a, 0xe1, 0xfc, 0x9b, 0xfd, 0x06, 0x05, 0x14, 0xb9, 0x15, 0x17, 0xdf,
//  0x01, 0x28, 0xef, 0x45, 0xe6, 0x16, 0x0b, 0x23, 0xcc, 0x22, 0x2f, 0x12,
//  0xe0, 0xdf, 0x92, 0x25, 0x24, 0x17, 0x3e, 0xd1, 0xef, 0xa9, 0x1b, 0xc3,
//  0x31, 0x99, 0xcb, 0x13, 0x42, 0x2c, 0x19, 0xfe, 0x14, 0x14, 0x30, 0x1b,
//  0xe1, 0x0e, 0xe4, 0x01, 0xbc, 0xfb, 0x3d, 0xfe, 0x81, 0x13, 0xf5, 0xed,
//  0xce, 0x07, 0x12, 0x05, 0xc9, 0x0e, 0x5e, 0x05, 0xd3, 0x16, 0x20, 0xd8,
//  0xc8, 0x07, 0xcc, 0x09, 0xea, 0x04, 0x1f, 0xe5, 0x0c, 0xbc, 0x09, 0x81,
//  0xb3, 0x07, 0xf9, 0x25, 0xee, 0x03, 0x34, 0x0c, 0x17, 0x2d, 0xa6, 0xca,
//  0xa6, 0x17, 0x93, 0x22, 0xcb, 0x05, 0x27, 0xc5, 0xe8, 0x0f, 0xcb, 0x1b,
//  0xa8, 0xc4, 0x1e, 0xc8, 0x14, 0x19, 0x0a, 0xdb, 0x15, 0x0b, 0xfe, 0xf2,
//  0x16, 0xb9, 0xdf, 0xc7, 0xe8, 0xd1, 0x5a, 0xb2, 0x2d, 0x31, 0xcc, 0x1a,
//  0xea, 0xcd, 0xec, 0xfe, 0xfb, 0x8e, 0x22, 0xb2, 0x31, 0xe6, 0x12, 0x2f,
//  0xe8, 0xf5, 0x44, 0x9d, 0xd6, 0xca, 0xd2, 0xd1, 0xef, 0xdb, 0xee, 0xf9,
//  0xb8, 0x58, 0x7f, 0x3f, 0xf5, 0xbf, 0xee, 0x38, 0xbc, 0xec, 0x12, 0xfc,
//  0x0a, 0xaa, 0xdf, 0xc4, 0x06, 0xe6, 0xd1, 0xd0, 0xd0, 0x11, 0x3b, 0x0d,
//  0x05, 0x15, 0x4f, 0xd4, 0xf1, 0xdd, 0x06, 0xf8, 0x11, 0xc6, 0x18, 0x18,
//  0x44, 0xe4, 0xfc, 0x21, 0x81, 0x06, 0xf7, 0x1a, 0xe5, 0xdd, 0x1e, 0x00,
//  0xf8, 0x12, 0x11, 0xb1, 0xce, 0xfe, 0x02, 0xa8, 0x3c, 0xfd, 0x1d, 0x0a,
//  0x1d, 0x10, 0x0a, 0x06, 0x0b, 0x02, 0xe4, 0x16, 0xf3, 0x08, 0x02, 0xfa,
//  0x17, 0xd3, 0x0e, 0xf0, 0x5a, 0xfb, 0xca, 0xf1, 0x15, 0x2a, 0x52, 0x15,
//  0xcc, 0xeb, 0x06, 0xee, 0x2c, 0x1d, 0xd9, 0x99, 0xfd, 0xbc, 0xd7, 0xc1,
//  0x1e, 0xed, 0x0d, 0x15, 0x2a, 0x38, 0xe0, 0x1f, 0x09, 0x0b, 0xe0, 0x06,
//  0x07, 0x96, 0x24, 0x46, 0x0d, 0xe1, 0xfd, 0x81, 0xdc, 0x00, 0xf9, 0x18,
//  0xee, 0x6c, 0x5e, 0xf4, 0x16, 0xdc, 0xd9, 0xf2, 0xda, 0xd7, 0xda, 0xef,
//  0x14, 0x24, 0x9c, 0xf6, 0xd5, 0xc9, 0x0e, 0x04, 0x03, 0x55, 0x97, 0xe1,
//  0x86, 0xd2, 0x12, 0x33, 0x19, 0x04, 0xdc, 0x04, 0xff, 0xde, 0x1f, 0xed,
//  0xf3, 0xcc, 0xee, 0x0b, 0xc8, 0x1b, 0xfa, 0xc4, 0xfa, 0x04, 0x40, 0xd7,
//  0xda, 0x0a, 0x1d, 0xf3, 0xfe, 0x00, 0xf4, 0x4b, 0xd6, 0x2a, 0x6a, 0x12,
//  0xca, 0x20, 0xc6, 0xe9, 0xd7, 0x1f, 0x02, 0x11, 0x07, 0xef, 0xfb, 0x2a,
//  0x0d, 0x81, 0x0f, 0xb5, 0xd3, 0xd8, 0xe2, 0x45, 0x92, 0xee, 0x0a, 0x1e,
//  0xad, 0x38, 0x17, 0x96, 0xfc, 0x03, 0xd6, 0xae, 0x0b, 0x2c, 0xf8, 0x07,
//  0xe8, 0xee, 0x0d, 0x17, 0x31, 0xdd, 0xed, 0x2f, 0xb1, 0x02, 0xbd, 0xcb,
//  0x2b, 0xd7, 0x05, 0xcd, 0xda, 0xb9, 0xbe, 0x13, 0x36, 0xcf, 0xf1, 0x1f,
//  0xd2, 0xb2, 0x03, 0xe1, 0x4e, 0x2e, 0x48, 0x13, 0x0f, 0x3b, 0x0b, 0xe2,
//  0x23, 0xf7, 0x1d, 0xdc, 0xfa, 0xb3, 0xe4, 0x0c, 0x1f, 0xff, 0xe5, 0xea,
//  0x0b, 0x09, 0x1f, 0xd6, 0x0e, 0xcf, 0xfd, 0x0f, 0x20, 0xda, 0x20, 0xa9,
//  0xee, 0xba, 0x19, 0x12, 0xfc, 0xf9, 0xbf, 0xbe, 0x81, 0xd0, 0xd8, 0x0d,
//  0xae, 0xa6, 0x2d, 0xf2, 0xd0, 0x10, 0x03, 0xdc, 0x59, 0xb9, 0x3e, 0xde,
//  0x26, 0xc9, 0xc9, 0x01, 0x04, 0x16, 0xd9, 0xfb, 0x09, 0xf3, 0x55, 0x13,
//  0x17, 0xe6, 0x15, 0x06, 0x28, 0x64, 0xe0, 0xff, 0x2e, 0x2c, 0xe4, 0xe4,
//  0x19, 0xad, 0x07, 0x19, 0x37, 0x16, 0xa6, 0x05, 0xe5, 0x27, 0x11, 0xed,
//  0x24, 0x81, 0x3c, 0xde, 0x30, 0xb3, 0xdd, 0xd8, 0x0d, 0xcb, 0xed, 0x22,
//  0xc9, 0x09, 0xe3, 0x43, 0x4b, 0x07, 0xd6, 0x9c, 0x01, 0xcd, 0xca, 0x10,
//  0x17, 0xcc, 0xad, 0x2b, 0xf3, 0xe0, 0x72, 0xdd, 0x5c, 0x52, 0x1f, 0x24,
//  0xdf, 0x3b, 0x0b, 0x33, 0x0e, 0xcc, 0xc7, 0x8b, 0x07, 0x81, 0x17, 0xc6,
//  0xef, 0x18, 0x13, 0x0b, 0x20, 0x13, 0x3d, 0xf5, 0x44, 0x1e, 0x2f, 0xc5,
//  0x02, 0x43, 0x9f, 0x50, 0xff, 0x24, 0xda, 0x08, 0xb2, 0x1c, 0x0a, 0xd8,
//  0xe1, 0xcf, 0x38, 0x0d, 0x08, 0x48, 0xe7, 0xb9, 0x2c, 0x9d, 0x2e, 0x25,
//  0xd1, 0x30, 0x08, 0x37, 0x0b, 0x12, 0x12, 0xc8, 0xc2, 0xd6, 0x3e, 0x27,
//  0x24, 0xc1, 0x38, 0xa1, 0xbe, 0xde, 0xe3, 0xf5, 0x27, 0xc9, 0xd8, 0xcd,
//  0x22, 0xd3, 0x13, 0xf4, 0xed, 0x0c, 0x04, 0x28, 0x1b, 0xeb, 0xbb, 0xfb,
//  0xcc, 0x07, 0x10, 0xb6, 0x28, 0x13, 0x13, 0x19, 0xff, 0xeb, 0x15, 0x1f,
//  0x1d, 0xdb, 0xf4, 0x3f, 0xf3, 0xf3, 0x0f, 0x81, 0x12, 0x1c, 0xf4, 0xec,
//  0xe9, 0x30, 0x0b, 0xdd, 0x23, 0xbd, 0x4e, 0xf7, 0xac, 0xf6, 0xbe, 0x0e,
//  0x5b, 0x0a, 0xe1, 0xf1, 0xfc, 0xea, 0x09, 0x22, 0xea, 0x19, 0x5f, 0xf5,
//  0x01, 0x07, 0xee, 0x3b, 0x07, 0x0a, 0xe6, 0xe9, 0x0e, 0x16, 0xe5, 0x00,
//  0xc3, 0x3b, 0x01, 0x02, 0xcf, 0x90, 0x0c, 0xb6, 0x25, 0x46, 0x4f, 0xe0,
//  0xac, 0x20, 0xbf, 0xe5, 0x9d, 0x00, 0x81, 0xb7, 0xf5, 0x6a, 0x0d, 0xec,
//  0x26, 0x24, 0x00, 0xd0, 0xe9, 0x9a, 0xd7, 0x07, 0xda, 0xd7, 0x23, 0xdf,
//  0xd8, 0x1f, 0x1f, 0xe2, 0x17, 0xe0, 0xeb, 0x3b, 0x81, 0x10, 0xf1, 0xdc,
//  0xe8, 0x1d, 0xe1, 0xf7, 0xef, 0x0a, 0x0d, 0xcc, 0xf7, 0xe8, 0x0d, 0x01,
//  0x09, 0x90, 0xa2, 0xa2, 0xce, 0x3d, 0xea, 0x17, 0xcd, 0xe2, 0x18, 0xdf,
//  0x38, 0x34, 0x06, 0x01, 0x1c, 0xea, 0x3e, 0x1b, 0x3a, 0xe4, 0xed, 0xd7,
//  0xf9, 0x17, 0xf5, 0x0e, 0x1e, 0x2a, 0x06, 0xf4, 0x18, 0xf7, 0x1b, 0xc0,
//  0x22, 0xd1, 0x29, 0xd3, 0x83, 0x01, 0xfb, 0x45, 0x18, 0xee, 0x30, 0x36,
//  0xd4, 0x47, 0xe5, 0x15, 0xcd, 0x7f, 0xd4, 0x1f, 0x06, 0xd4, 0x06, 0xf9,
//  0x34, 0x2b, 0x3b, 0xf4, 0xe6, 0x12, 0xc0, 0x38, 0x1c, 0x3a, 0x4b, 0x19,
//  0xdd, 0x30, 0x1a, 0x16, 0x5e, 0xeb, 0x08, 0xff, 0x01, 0x2a, 0x97, 0x22,
//  0xab, 0xfb, 0xcd, 0xd1, 0x04, 0x09, 0x07, 0x94, 0xf9, 0xef, 0xdc, 0xf9,
//  0x8c, 0x01, 0x2d, 0xd5, 0x0a, 0x2d, 0x27, 0xbb, 0xaf, 0xff, 0x67, 0x31,
//  0xfa, 0x22, 0xf6, 0xa7, 0xac, 0xbf, 0xdb, 0xd6, 0xe7, 0xe5, 0xbe, 0xe6,
//  0xe5, 0x4b, 0x4c, 0x2a, 0x4b, 0x3a, 0xd5, 0x7c, 0x3e, 0xfb, 0x3e, 0xb4,
//  0x2e, 0x34, 0x3d, 0xe7, 0xe2, 0x10, 0xd4, 0x81, 0x99, 0xb6, 0xa4, 0xda,
//  0x09, 0x09, 0x0c, 0xc2, 0xe2, 0xf6, 0x11, 0xff, 0x07, 0x03, 0xb9, 0x10,
//  0xcb, 0x33, 0xdb, 0x32, 0xb7, 0xc3, 0x43, 0xaa, 0x54, 0x0b, 0xd9, 0xe3,
//  0xd6, 0x35, 0x7f, 0x31, 0x76, 0xdd, 0x0c, 0x03, 0x9b, 0x71, 0x32, 0xc2,
//  0x0b, 0x21, 0x3b, 0xb9, 0xab, 0xf8, 0x07, 0x59, 0x1d, 0xec, 0xd9, 0x3a,
//  0x5f, 0x0e, 0xc9, 0x38, 0x16, 0x12, 0x23, 0xec, 0xaa, 0x16, 0x0d, 0xbf,
//  0x02, 0xa8, 0x19, 0x2a, 0xba, 0x37, 0x10, 0x1f, 0xc7, 0xf3, 0xcd, 0xda,
//  0xf1, 0xc1, 0x55, 0xf7, 0x51, 0xcd, 0x05, 0x08, 0x19, 0x1d, 0xf4, 0xa1,
//  0xbf, 0x47, 0x0b, 0xef, 0x05, 0xb5, 0xa5, 0x38, 0x2a, 0xf8, 0xd8, 0x28,
//  0x27, 0x4c, 0x81, 0xfd, 0xc5, 0x0a, 0x15, 0x26, 0x1f, 0x04, 0x2f, 0xaf,
//  0x34, 0x12, 0x20, 0xa2, 0xe7, 0x07, 0xfd, 0xe3, 0x45, 0xd6, 0xfc, 0x37,
//  0x19, 0xe5, 0x34, 0x23, 0x20, 0xef, 0xb8, 0x3a, 0x1c, 0xa8, 0x06, 0x1c,
//  0xcb, 0x93, 0x22, 0xfc, 0xdb, 0x24, 0xff, 0x12, 0xe3, 0xf9, 0xd5, 0x17,
//  0xe5, 0xe8, 0xfa, 0x0f, 0x1a, 0x1b, 0x05, 0x0c, 0xf1, 0x0a, 0x13, 0x0a,
//  0x1a, 0x0c, 0xbe, 0xf4, 0xfe, 0xf3, 0x0b, 0xd4, 0xf0, 0x1d, 0x0a, 0xf7,
//  0xd2, 0x1e, 0x07, 0x05, 0x04, 0xd0, 0xf1, 0x2c, 0x02, 0xf1, 0xf3, 0xff,
//  0xd0, 0xf7, 0xf9, 0x06, 0xed, 0x28, 0xe9, 0xd8, 0x04, 0xe9, 0xf8, 0x17,
//  0xdd, 0x1f, 0xee, 0xff, 0xef, 0x25, 0xf4, 0x0a, 0xee, 0x00, 0x15, 0x81,
//  0x08, 0xf8, 0xb8, 0x07, 0x53, 0x0b, 0x3c, 0x03, 0x5b, 0xdf, 0x30, 0xe2,
//  0xf2, 0x22, 0xc6, 0x70, 0xed, 0x0f, 0xf3, 0x0c, 0x25, 0xd0, 0x06, 0x1f,
//  0xa6, 0x6d, 0x57, 0x4c, 0x5d, 0xf6, 0x41, 0xf4, 0x0d, 0xd8, 0xd4, 0x16,
//  0xb7, 0x8b, 0xcc, 0x0b, 0x7f, 0xb6, 0x21, 0xe6, 0x68, 0x24, 0x82, 0x2c,
//  0xe1, 0x16, 0x0b, 0xd4, 0x3e, 0x20, 0xc8, 0xf0, 0xe0, 0xc7, 0x43, 0xa6,
//  0x9f, 0xf4, 0x09, 0x29, 0x2b, 0x14, 0x1a, 0x64, 0x4e, 0x71, 0xff, 0xff,
//  0x00, 0x00, 0x00, 0x09, 0x10, 0x00, 0x00, 0x00, 0x13, 0x00, 0x00, 0x00,
//  0x1c, 0x00, 0x00, 0x00, 0x38, 0x00, 0x00, 0x00, 0x04, 0x00, 0x00, 0x00,
//  0x40, 0x00, 0x00, 0x00, 0x01, 0x00, 0x00, 0x00, 0x01, 0x00, 0x00, 0x00,
//  0x40, 0x00, 0x00, 0x00, 0x1a, 0x00, 0x00, 0x00, 0x73, 0x65, 0x71, 0x75,
//  0x65, 0x6e, 0x74, 0x69, 0x61, 0x6c, 0x2f, 0x63, 0x6f, 0x6e, 0x76, 0x32,
//  0x64, 0x5f, 0x33, 0x2f, 0x43, 0x6f, 0x6e, 0x76, 0x32, 0x44, 0x00, 0x00,
//  0xfc, 0x82, 0xff, 0xff, 0x08, 0x00, 0x00, 0x00, 0x08, 0x01, 0x00, 0x00,
//  0x40, 0x00, 0x00, 0x00, 0x9d, 0x60, 0x8c, 0x3b, 0x60, 0xc7, 0xd3, 0x3b,
//  0x82, 0x64, 0x66, 0x3b, 0xfd, 0x71, 0x4a, 0x3b, 0x57, 0x6a, 0xce, 0x3b,
//  0x51, 0x42, 0x7b, 0x3b, 0x5c, 0x88, 0x80, 0x3b, 0x39, 0x88, 0x35, 0x3b,
//  0x35, 0x6d, 0x84, 0x3b, 0x10, 0x10, 0x88, 0x3b, 0x9e, 0xcb, 0x57, 0x3b,
//  0xd0, 0x24, 0x7a, 0x3b, 0x03, 0xdf, 0x73, 0x3b, 0x8e, 0x81, 0x83, 0x3b,
//  0x11, 0x98, 0x87, 0x3b, 0x94, 0x6e, 0x84, 0x3b, 0x57, 0xe4, 0x40, 0x3b,
//  0xbe, 0xbd, 0x83, 0x3b, 0xd6, 0x45, 0x4f, 0x3b, 0x27, 0x35, 0x78, 0x3b,
//  0x08, 0xcf, 0x72, 0x3b, 0x6e, 0x55, 0x7f, 0x3b, 0xe4, 0x32, 0x76, 0x3b,
//  0x24, 0x03, 0x8b, 0x3b, 0xc8, 0xf3, 0x9a, 0x3b, 0x9f, 0x05, 0x72, 0x3b,
//  0x54, 0xfb, 0x7e, 0x3b, 0xb4, 0x6a, 0xc4, 0x3b, 0xa7, 0x6c, 0x71, 0x3b,
//  0xa7, 0x59, 0x3c, 0x3b, 0xf7, 0xd7, 0x83, 0x3b, 0x85, 0xfe, 0x88, 0x3b,
//  0xa8, 0x78, 0x64, 0x3b, 0x56, 0x3e, 0x9b, 0x3b, 0x21, 0xa3, 0x73, 0x3b,
//  0xe4, 0x30, 0x57, 0x3b, 0xc2, 0xb9, 0x4e, 0x3b, 0x0b, 0xe3, 0x7f, 0x3b,
//  0xf3, 0x05, 0x8d, 0x3b, 0x42, 0xea, 0x55, 0x3b, 0xb8, 0x41, 0xc3, 0x3b,
//  0x2c, 0xda, 0x55, 0x3b, 0x2d, 0x1d, 0x8b, 0x3b, 0x6c, 0x00, 0x5c, 0x3b,
//  0x45, 0x82, 0xa0, 0x3b, 0x1a, 0x44, 0x6f, 0x3b, 0xd3, 0x21, 0x90, 0x3b,
//  0xfa, 0xce, 0xa5, 0x3b, 0x30, 0x50, 0x37, 0x3b, 0x57, 0x45, 0x5a, 0x3b,
//  0x3f, 0x78, 0x8b, 0x3b, 0x67, 0x60, 0x84, 0x3b, 0xe3, 0xa0, 0x6b, 0x3b,
//  0x14, 0xfb, 0x81, 0x3b, 0x0b, 0x58, 0x44, 0x3b, 0x11, 0x53, 0x51, 0x3b,
//  0x9d, 0xb8, 0x89, 0x3b, 0xb4, 0xdc, 0xb6, 0x3b, 0x30, 0xff, 0x82, 0x3b,
//  0x75, 0x8c, 0x36, 0x3b, 0x42, 0x7d, 0x61, 0x3b, 0x93, 0x05, 0x81, 0x3b,
//  0x52, 0x55, 0xb3, 0x3b, 0x25, 0x77, 0x41, 0x3b, 0x40, 0x00, 0x00, 0x00,
//  0x00, 0x00, 0x00, 0x00, 0x00, 0x00, 0x00, 0x00, 0x00, 0x00, 0x00, 0x00,
//  0x00, 0x00, 0x00, 0x00, 0x00, 0x00, 0x00, 0x00, 0x00, 0x00, 0x00, 0x00,
//  0x00, 0x00, 0x00, 0x00, 0x00, 0x00, 0x00, 0x00, 0x00, 0x00, 0x00, 0x00,
//  0x00, 0x00, 0x00, 0x00, 0x00, 0x00, 0x00, 0x00, 0x00, 0x00, 0x00, 0x00,
//  0x00, 0x00, 0x00, 0x00, 0x00, 0x00, 0x00, 0x00, 0x00, 0x00, 0x00, 0x00,
//  0x00, 0x00, 0x00, 0x00, 0x00, 0x00, 0x00, 0x00, 0x00, 0x00, 0x00, 0x00,
//  0x00, 0x00, 0x00, 0x00, 0x00, 0x00, 0x00, 0x00, 0x00, 0x00, 0x00, 0x00,
//  0x00, 0x00, 0x00, 0x00, 0x00, 0x00, 0x00, 0x00, 0x00, 0x00, 0x00, 0x00,
//  0x00, 0x00, 0x00, 0x00, 0x00, 0x00, 0x00, 0x00, 0x00, 0x00, 0x00, 0x00,
//  0x00, 0x00, 0x00, 0x00, 0x00, 0x00, 0x00, 0x00, 0x00, 0x00, 0x00, 0x00,
//  0x00, 0x00, 0x00, 0x00, 0x00, 0x00, 0x00, 0x00, 0x00, 0x00, 0x00, 0x00,
//  0x00, 0x00, 0x00, 0x00, 0x00, 0x00, 0x00, 0x00, 0x00, 0x00, 0x00, 0x00,
//  0x00, 0x00, 0x00, 0x00, 0x00, 0x00, 0x00, 0x00, 0x00, 0x00, 0x00, 0x00,
//  0x00, 0x00, 0x00, 0x00, 0x00, 0x00, 0x00, 0x00, 0x00, 0x00, 0x00, 0x00,
//  0x00, 0x00, 0x00, 0x00, 0x00, 0x00, 0x00, 0x00, 0x00, 0x00, 0x00, 0x00,
//  0x00, 0x00, 0x00, 0x00, 0x00, 0x00, 0x00, 0x00, 0x00, 0x00, 0x00, 0x00,
//  0x00, 0x00, 0x00, 0x00, 0x00, 0x00, 0x00, 0x00, 0x00, 0x00, 0x00, 0x00,
//  0x00, 0x00, 0x00, 0x00, 0x00, 0x00, 0x00, 0x00, 0x00, 0x00, 0x00, 0x00,
//  0x00, 0x00, 0x00, 0x00, 0x00, 0x00, 0x00, 0x00, 0x00, 0x00, 0x00, 0x00,
//  0x00, 0x00, 0x00, 0x00, 0x00, 0x00, 0x00, 0x00, 0x00, 0x00, 0x00, 0x00,
//  0x00, 0x00, 0x00, 0x00, 0x00, 0x00, 0x00, 0x00, 0x00, 0x00, 0x00, 0x00,
//  0x00, 0x00, 0x00, 0x00, 0x00, 0x00, 0x00, 0x00, 0x00, 0x00, 0x00, 0x00,
//  0x00, 0x00, 0x00, 0x00, 0x00, 0x00, 0x00, 0x00, 0x00, 0x00, 0x00, 0x00,
//  0x00, 0x00, 0x00, 0x00, 0x00, 0x00, 0x00, 0x00, 0x00, 0x00, 0x00, 0x00,
//  0x00, 0x00, 0x00, 0x00, 0x00, 0x00, 0x00, 0x00, 0x00, 0x00, 0x00, 0x00,
//  0x00, 0x00, 0x00, 0x00, 0x00, 0x00, 0x00, 0x00, 0x00, 0x00, 0x00, 0x00,
//  0x00, 0x00, 0x00, 0x00, 0x00, 0x00, 0x00, 0x00, 0x00, 0x00, 0x00, 0x00,
//  0x00, 0x00, 0x00, 0x00, 0x00, 0x00, 0x00, 0x00, 0x00, 0x00, 0x00, 0x00,
//  0x00, 0x00, 0x00, 0x00, 0x00, 0x00, 0x00, 0x00, 0x00, 0x00, 0x00, 0x00,
//  0x00, 0x00, 0x00, 0x00, 0x00, 0x00, 0x00, 0x00, 0x00, 0x00, 0x00, 0x00,
//  0x00, 0x00, 0x00, 0x00, 0x00, 0x00, 0x00, 0x00, 0x00, 0x00, 0x00, 0x00,
//  0x00, 0x00, 0x00, 0x00, 0x00, 0x00, 0x00, 0x00, 0x00, 0x00, 0x00, 0x00,
//  0x00, 0x00, 0x00, 0x00, 0x00, 0x00, 0x00, 0x00, 0x00, 0x00, 0x00, 0x00,
//  0x00, 0x00, 0x00, 0x00, 0x00, 0x00, 0x00, 0x00, 0x00, 0x00, 0x00, 0x00,
//  0x00, 0x00, 0x00, 0x00, 0x00, 0x00, 0x00, 0x00, 0x00, 0x00, 0x00, 0x00,
//  0x00, 0x00, 0x00, 0x00, 0x00, 0x00, 0x00, 0x00, 0x00, 0x00, 0x00, 0x00,
//  0x00, 0x00, 0x00, 0x00, 0x00, 0x00, 0x00, 0x00, 0x00, 0x00, 0x00, 0x00,
//  0x00, 0x00, 0x00, 0x00, 0x00, 0x00, 0x00, 0x00, 0x00, 0x00, 0x00, 0x00,
//  0x00, 0x00, 0x00, 0x00, 0x00, 0x00, 0x00, 0x00, 0x00, 0x00, 0x00, 0x00,
//  0x00, 0x00, 0x00, 0x00, 0x00, 0x00, 0x00, 0x00, 0x00, 0x00, 0x00, 0x00,
//  0x00, 0x00, 0x00, 0x00, 0x00, 0x00, 0x00, 0x00, 0x00, 0x00, 0x00, 0x00,
//  0x00, 0x00, 0x00, 0x00, 0x00, 0x00, 0x00, 0x00, 0x00, 0x00, 0x00, 0x00,
//  0x00, 0x00, 0x00, 0x00, 0x00, 0x00, 0x00, 0x00, 0xca, 0x74, 0xff, 0xff,
//  0x04, 0x00, 0x00, 0x00, 0x00, 0x01, 0x00, 0x00, 0x16, 0xfb, 0xff, 0xff,
//  0xac, 0xfd, 0xff, 0xff, 0x9b, 0xfc, 0xff, 0xff, 0x43, 0xfe, 0xff, 0xff,
//  0xc0, 0xff, 0xff, 0xff, 0xee, 0x06, 0x00, 0x00, 0x6c, 0x08, 0x00, 0x00,
//  0x36, 0xfa, 0xff, 0xff, 0x05, 0x03, 0x00, 0x00, 0x86, 0x01, 0x00, 0x00,
//  0x00, 0xfd, 0xff, 0xff, 0x9b, 0x03, 0x00, 0x00, 0x0d, 0x01, 0x00, 0x00,
//  0xe4, 0xfb, 0xff, 0xff, 0xff, 0xfa, 0xff, 0xff, 0xce, 0xf4, 0xff, 0xff,
//  0xf3, 0x04, 0x00, 0x00, 0xd8, 0x00, 0x00, 0x00, 0x23, 0x08, 0x00, 0x00,
//  0x4d, 0xfa, 0xff, 0xff, 0x8a, 0x00, 0x00, 0x00, 0x17, 0xff, 0xff, 0xff,
//  0x1f, 0x02, 0x00, 0x00, 0x31, 0xfd, 0xff, 0xff, 0xed, 0x0b, 0x00, 0x00,
//  0xd1, 0xfe, 0xff, 0xff, 0x64, 0x05, 0x00, 0x00, 0xde, 0xff, 0xff, 0xff,
//  0x14, 0x03, 0x00, 0x00, 0x4c, 0x01, 0x00, 0x00, 0x81, 0xfe, 0xff, 0xff,
//  0x87, 0xf5, 0xff, 0xff, 0xc7, 0x01, 0x00, 0x00, 0xcd, 0xfb, 0xff, 0xff,
//  0x1c, 0x04, 0x00, 0x00, 0xf2, 0x05, 0x00, 0x00, 0x36, 0xff, 0xff, 0xff,
//  0xee, 0xff, 0xff, 0xff, 0x0a, 0xfc, 0xff, 0xff, 0x3a, 0xfb, 0xff, 0xff,
//  0xb2, 0xff, 0xff, 0xff, 0xae, 0x0c, 0x00, 0x00, 0x32, 0xfa, 0xff, 0xff,
//  0x4d, 0xff, 0xff, 0xff, 0x35, 0x05, 0x00, 0x00, 0x7c, 0x02, 0x00, 0x00,
//  0xcd, 0xfc, 0xff, 0xff, 0xaf, 0xf0, 0xff, 0xff, 0xd5, 0xfc, 0xff, 0xff,
//  0xd2, 0xfb, 0xff, 0xff, 0xd2, 0xfb, 0xff, 0xff, 0xe2, 0xfe, 0xff, 0xff,
//  0x4a, 0xff, 0xff, 0xff, 0x30, 0xff, 0xff, 0xff, 0x59, 0x0c, 0x00, 0x00,
//  0x50, 0xfe, 0xff, 0xff, 0x17, 0xff, 0xff, 0xff, 0x41, 0x07, 0x00, 0x00,
//  0x6f, 0xf9, 0xff, 0xff, 0xb5, 0xf3, 0xff, 0xff, 0x1b, 0xfe, 0xff, 0xff,
//  0x3f, 0x05, 0x00, 0x00, 0x0d, 0x03, 0x00, 0x00, 0xce, 0x04, 0x00, 0x00,
//  0xba, 0x75, 0xff, 0xff, 0x00, 0x00, 0x00, 0x02, 0x10, 0x00, 0x00, 0x00,
//  0x12, 0x00, 0x00, 0x00, 0x10, 0x00, 0x00, 0x00, 0xf4, 0x00, 0x00, 0x00,
//  0x01, 0x00, 0x00, 0x00, 0x40, 0x00, 0x00, 0x00, 0xe3, 0x00, 0x00, 0x00,
//  0x73, 0x65, 0x71, 0x75, 0x65, 0x6e, 0x74, 0x69, 0x61, 0x6c, 0x2f, 0x62,
//  0x61, 0x74, 0x63, 0x68, 0x5f, 0x6e, 0x6f, 0x72, 0x6d, 0x61, 0x6c, 0x69,
//  0x7a, 0x61, 0x74, 0x69, 0x6f, 0x6e, 0x5f, 0x37, 0x2f, 0x46, 0x75, 0x73,
//  0x65, 0x64, 0x42, 0x61, 0x74, 0x63, 0x68, 0x4e, 0x6f, 0x72, 0x6d, 0x56,
//  0x33, 0x3b, 0x73, 0x65, 0x71, 0x75, 0x65, 0x6e, 0x74, 0x69, 0x61, 0x6c,
//  0x2f, 0x64, 0x65, 0x70, 0x74, 0x68, 0x77, 0x69, 0x73, 0x65, 0x5f, 0x63,
//  0x6f, 0x6e, 0x76, 0x32, 0x64, 0x5f, 0x34, 0x2f, 0x64, 0x65, 0x70, 0x74,
//  0x68, 0x77, 0x69, 0x73, 0x65, 0x3b, 0x73, 0x65, 0x71, 0x75, 0x65, 0x6e,
//  0x74, 0x69, 0x61, 0x6c, 0x2f, 0x64, 0x65, 0x70, 0x74, 0x68, 0x77, 0x69,
//  0x73, 0x65, 0x5f, 0x63, 0x6f, 0x6e, 0x76, 0x32, 0x64, 0x5f, 0x34, 0x2f,
//  0x42, 0x69, 0x61, 0x73, 0x41, 0x64, 0x64, 0x3b, 0x73, 0x65, 0x71, 0x75,
//  0x65, 0x6e, 0x74, 0x69, 0x61, 0x6c, 0x2f, 0x64, 0x65, 0x70, 0x74, 0x68,
//  0x77, 0x69, 0x73, 0x65, 0x5f, 0x63, 0x6f, 0x6e, 0x76, 0x32, 0x64, 0x2f,
//  0x64, 0x65, 0x70, 0x74, 0x68, 0x77, 0x69, 0x73, 0x65, 0x3b, 0x73, 0x65,
//  0x71, 0x75, 0x65, 0x6e, 0x74, 0x69, 0x61, 0x6c, 0x2f, 0x64, 0x65, 0x70,
//  0x74, 0x68, 0x77, 0x69, 0x73, 0x65, 0x5f, 0x63, 0x6f, 0x6e, 0x76, 0x32,
//  0x64, 0x5f, 0x34, 0x2f, 0x42, 0x69, 0x61, 0x73, 0x41, 0x64, 0x64, 0x2f,
//  0x52, 0x65, 0x61, 0x64, 0x56, 0x61, 0x72, 0x69, 0x61, 0x62, 0x6c, 0x65,
//  0x4f, 0x70, 0x2f, 0x72, 0x65, 0x73, 0x6f, 0x75, 0x72, 0x63, 0x65, 0x00,
//  0x24, 0x88, 0xff, 0xff, 0x08, 0x00, 0x00, 0x00, 0x08, 0x01, 0x00, 0x00,
//  0x40, 0x00, 0x00, 0x00, 0xe2, 0xc9, 0xc0, 0x3a, 0xcf, 0x0b, 0x3f, 0x3b,
//  0x69, 0xce, 0xf7, 0x3a, 0xe6, 0x56, 0x18, 0x3b, 0x80, 0xed, 0x0f, 0x3a,
//  0x08, 0xd6, 0x0f, 0x3a, 0x5a, 0xa4, 0x07, 0x3a, 0x1b, 0xa1, 0x5c, 0x3a,
//  0xf5, 0x7b, 0x9f, 0x3a, 0xb5, 0x33, 0xe4, 0x39, 0x48, 0x20, 0x5f, 0x3a,
//  0x85, 0x1e, 0x58, 0x3a, 0xfa, 0x0c, 0xca, 0x3a, 0x88, 0x92, 0xa1, 0x3a,
//  0xaa, 0xa4, 0x67, 0x3a, 0x6a, 0xf5, 0xdb, 0x39, 0x4b, 0x3c, 0x5b, 0x3a,
//  0x0b, 0xb4, 0x85, 0x3a, 0x64, 0xd7, 0xd2, 0x39, 0x2d, 0x87, 0x8a, 0x3a,
//  0x38, 0x4e, 0x30, 0x3a, 0x1a, 0x40, 0x0d, 0x3a, 0xf8, 0xe5, 0xad, 0x3a,
//  0xed, 0x9a, 0xb8, 0x3a, 0xa0, 0x6b, 0x08, 0x3a, 0x1a, 0xd4, 0xb3, 0x3a,
//  0x0b, 0x3b, 0x3b, 0x3a, 0x80, 0x7a, 0xab, 0x3b, 0x48, 0xf2, 0x81, 0x3a,
//  0xb5, 0x1b, 0x5f, 0x3a, 0xab, 0x71, 0x36, 0x3b, 0x84, 0xea, 0xff, 0x39,
//  0x64, 0x7a, 0x89, 0x3a, 0x6e, 0x25, 0xc1, 0x3a, 0x1c, 0x83, 0x73, 0x3a,
//  0x34, 0x6e, 0x0c, 0x3a, 0x5f, 0x3f, 0x48, 0x3a, 0x3d, 0x49, 0x4d, 0x3a,
//  0x87, 0x15, 0xdc, 0x3a, 0x89, 0x85, 0x00, 0x3a, 0x80, 0x85, 0x7c, 0x3a,
//  0xe6, 0x07, 0xbe, 0x39, 0xf9, 0x95, 0x83, 0x3a, 0x63, 0x77, 0x00, 0x3b,
//  0x88, 0x7c, 0x1b, 0x3a, 0xc6, 0x36, 0x93, 0x3a, 0xcc, 0x10, 0x2a, 0x3a,
//  0x7d, 0xf7, 0xa7, 0x39, 0xe8, 0xab, 0xee, 0x3a, 0xb1, 0xa5, 0x4a, 0x3a,
//  0xc8, 0xd1, 0x6f, 0x3a, 0x16, 0x01, 0x58, 0x3b, 0x3c, 0x2f, 0xb7, 0x3a,
//  0x0d, 0x1e, 0x74, 0x3a, 0xc2, 0xfa, 0xcd, 0x39, 0x06, 0x24, 0x81, 0x3a,
//  0x8a, 0x2d, 0x89, 0x3a, 0x4d, 0x48, 0x09, 0x3a, 0x3c, 0x65, 0x58, 0x3a,
//  0x75, 0x9c, 0x79, 0x3a, 0xa4, 0x57, 0x71, 0x3a, 0xcb, 0xf4, 0x71, 0x3a,
//  0x08, 0xab, 0x1a, 0x3a, 0x29, 0x31, 0x66, 0x3a, 0x40, 0x00, 0x00, 0x00,
//  0x00, 0x00, 0x00, 0x00, 0x00, 0x00, 0x00, 0x00, 0x00, 0x00, 0x00, 0x00,
//  0x00, 0x00, 0x00, 0x00, 0x00, 0x00, 0x00, 0x00, 0x00, 0x00, 0x00, 0x00,
//  0x00, 0x00, 0x00, 0x00, 0x00, 0x00, 0x00, 0x00, 0x00, 0x00, 0x00, 0x00,
//  0x00, 0x00, 0x00, 0x00, 0x00, 0x00, 0x00, 0x00, 0x00, 0x00, 0x00, 0x00,
//  0x00, 0x00, 0x00, 0x00, 0x00, 0x00, 0x00, 0x00, 0x00, 0x00, 0x00, 0x00,
//  0x00, 0x00, 0x00, 0x00, 0x00, 0x00, 0x00, 0x00, 0x00, 0x00, 0x00, 0x00,
//  0x00, 0x00, 0x00, 0x00, 0x00, 0x00, 0x00, 0x00, 0x00, 0x00, 0x00, 0x00,
//  0x00, 0x00, 0x00, 0x00, 0x00, 0x00, 0x00, 0x00, 0x00, 0x00, 0x00, 0x00,
//  0x00, 0x00, 0x00, 0x00, 0x00, 0x00, 0x00, 0x00, 0x00, 0x00, 0x00, 0x00,
//  0x00, 0x00, 0x00, 0x00, 0x00, 0x00, 0x00, 0x00, 0x00, 0x00, 0x00, 0x00,
//  0x00, 0x00, 0x00, 0x00, 0x00, 0x00, 0x00, 0x00, 0x00, 0x00, 0x00, 0x00,
//  0x00, 0x00, 0x00, 0x00, 0x00, 0x00, 0x00, 0x00, 0x00, 0x00, 0x00, 0x00,
//  0x00, 0x00, 0x00, 0x00, 0x00, 0x00, 0x00, 0x00, 0x00, 0x00, 0x00, 0x00,
//  0x00, 0x00, 0x00, 0x00, 0x00, 0x00, 0x00, 0x00, 0x00, 0x00, 0x00, 0x00,
//  0x00, 0x00, 0x00, 0x00, 0x00, 0x00, 0x00, 0x00, 0x00, 0x00, 0x00, 0x00,
//  0x00, 0x00, 0x00, 0x00, 0x00, 0x00, 0x00, 0x00, 0x00, 0x00, 0x00, 0x00,
//  0x00, 0x00, 0x00, 0x00, 0x00, 0x00, 0x00, 0x00, 0x00, 0x00, 0x00, 0x00,
//  0x00, 0x00, 0x00, 0x00, 0x00, 0x00, 0x00, 0x00, 0x00, 0x00, 0x00, 0x00,
//  0x00, 0x00, 0x00, 0x00, 0x00, 0x00, 0x00, 0x00, 0x00, 0x00, 0x00, 0x00,
//  0x00, 0x00, 0x00, 0x00, 0x00, 0x00, 0x00, 0x00, 0x00, 0x00, 0x00, 0x00,
//  0x00, 0x00, 0x00, 0x00, 0x00, 0x00, 0x00, 0x00, 0x00, 0x00, 0x00, 0x00,
//  0x00, 0x00, 0x00, 0x00, 0x00, 0x00, 0x00, 0x00, 0x00, 0x00, 0x00, 0x00,
//  0x00, 0x00, 0x00, 0x00, 0x00, 0x00, 0x00, 0x00, 0x00, 0x00, 0x00, 0x00,
//  0x00, 0x00, 0x00, 0x00, 0x00, 0x00, 0x00, 0x00, 0x00, 0x00, 0x00, 0x00,
//  0x00, 0x00, 0x00, 0x00, 0x00, 0x00, 0x00, 0x00, 0x00, 0x00, 0x00, 0x00,
//  0x00, 0x00, 0x00, 0x00, 0x00, 0x00, 0x00, 0x00, 0x00, 0x00, 0x00, 0x00,
//  0x00, 0x00, 0x00, 0x00, 0x00, 0x00, 0x00, 0x00, 0x00, 0x00, 0x00, 0x00,
//  0x00, 0x00, 0x00, 0x00, 0x00, 0x00, 0x00, 0x00, 0x00, 0x00, 0x00, 0x00,
//  0x00, 0x00, 0x00, 0x00, 0x00, 0x00, 0x00, 0x00, 0x00, 0x00, 0x00, 0x00,
//  0x00, 0x00, 0x00, 0x00, 0x00, 0x00, 0x00, 0x00, 0x00, 0x00, 0x00, 0x00,
//  0x00, 0x00, 0x00, 0x00, 0x00, 0x00, 0x00, 0x00, 0x00, 0x00, 0x00, 0x00,
//  0x00, 0x00, 0x00, 0x00, 0x00, 0x00, 0x00, 0x00, 0x00, 0x00, 0x00, 0x00,
//  0x00, 0x00, 0x00, 0x00, 0x00, 0x00, 0x00, 0x00, 0x00, 0x00, 0x00, 0x00,
//  0x00, 0x00, 0x00, 0x00, 0x00, 0x00, 0x00, 0x00, 0x00, 0x00, 0x00, 0x00,
//  0x00, 0x00, 0x00, 0x00, 0x00, 0x00, 0x00, 0x00, 0x00, 0x00, 0x00, 0x00,
//  0x00, 0x00, 0x00, 0x00, 0x00, 0x00, 0x00, 0x00, 0x00, 0x00, 0x00, 0x00,
//  0x00, 0x00, 0x00, 0x00, 0x00, 0x00, 0x00, 0x00, 0x00, 0x00, 0x00, 0x00,
//  0x00, 0x00, 0x00, 0x00, 0x00, 0x00, 0x00, 0x00, 0x00, 0x00, 0x00, 0x00,
//  0x00, 0x00, 0x00, 0x00, 0x00, 0x00, 0x00, 0x00, 0x00, 0x00, 0x00, 0x00,
//  0x00, 0x00, 0x00, 0x00, 0x00, 0x00, 0x00, 0x00, 0x00, 0x00, 0x00, 0x00,
//  0x00, 0x00, 0x00, 0x00, 0x00, 0x00, 0x00, 0x00, 0x00, 0x00, 0x00, 0x00,
//  0x00, 0x00, 0x00, 0x00, 0x00, 0x00, 0x00, 0x00, 0x00, 0x00, 0x00, 0x00,
//  0x00, 0x00, 0x00, 0x00, 0x00, 0x00, 0x00, 0x00, 0x00, 0x00, 0x00, 0x00,
//  0xf6, 0x79, 0xff, 0xff, 0x04, 0x00, 0x00, 0x00, 0x40, 0x02, 0x00, 0x00,
//  0x3a, 0x4b, 0x2b, 0xfa, 0x3a, 0x6a, 0x81, 0x1f, 0x0c, 0xe3, 0x83, 0x65,
//  0x21, 0x54, 0x10, 0x63, 0xc8, 0xb2, 0xa4, 0x50, 0xd4, 0x9e, 0x88, 0xdd,
//  0x9d, 0x9d, 0xe6, 0x7f, 0x41, 0x12, 0xd0, 0x27, 0x81, 0x07, 0x9a, 0x39,
//  0x50, 0x4e, 0x7f, 0x25, 0x13, 0x8e, 0x73, 0xe5, 0xb6, 0x7f, 0xb7, 0x05,
//  0xc8, 0xb7, 0x55, 0x50, 0x4f, 0xa4, 0x8d, 0x7f, 0xaf, 0x65, 0x1c, 0x34,
//  0x15, 0x81, 0x91, 0xbd, 0x5c, 0x78, 0x1d, 0x5d, 0x0e, 0x14, 0x11, 0x38,
//  0x22, 0x0b, 0xd6, 0x55, 0xe1, 0x18, 0x17, 0x3a, 0xf0, 0x65, 0xb6, 0x45,
//  0x35, 0x2f, 0x13, 0x2a, 0x81, 0x86, 0x38, 0x3e, 0x54, 0x9a, 0x39, 0xfa,
//  0xf9, 0x5b, 0xcf, 0x4f, 0x6a, 0x83, 0x53, 0x7f, 0x6b, 0xb3, 0x7f, 0xde,
//  0xf3, 0x63, 0x6f, 0x4a, 0x30, 0xcc, 0x50, 0x72, 0xcc, 0x95, 0xe0, 0xe7,
//  0xe0, 0x0b, 0x57, 0x6a, 0x7f, 0xa2, 0x4a, 0x58, 0x47, 0x74, 0x2d, 0x2f,
//  0x68, 0x3d, 0xa5, 0x6e, 0xe9, 0xa9, 0x81, 0xf6, 0xa5, 0x3b, 0x29, 0x30,
//  0xf1, 0x81, 0x81, 0x2c, 0xb9, 0x83, 0x81, 0x33, 0xf5, 0x44, 0x3e, 0x02,
//  0x37, 0x7f, 0x7f, 0xcb, 0x43, 0x40, 0xbb, 0xed, 0x5f, 0x76, 0x27, 0x42,
//  0x52, 0xac, 0x64, 0x7f, 0x81, 0x1d, 0x70, 0x54, 0x5f, 0xdd, 0x54, 0x35,
//  0x78, 0x47, 0x81, 0xd9, 0x68, 0xf4, 0x7f, 0x09, 0x92, 0xa3, 0xb7, 0x41,
//  0x3f, 0xf5, 0xee, 0x11, 0xf2, 0x20, 0x9c, 0x2c, 0xe4, 0x15, 0x32, 0xdc,
//  0x07, 0x3e, 0xf3, 0x5e, 0xb8, 0xb9, 0x93, 0x1c, 0xce, 0x25, 0xf3, 0x33,
//  0xc0, 0xd5, 0xc4, 0x3d, 0xec, 0xa7, 0x06, 0x0d, 0xf4, 0x28, 0xd8, 0x27,
//  0xef, 0x46, 0x55, 0x1f, 0xab, 0xe6, 0xe5, 0xa8, 0xd8, 0xe9, 0x9d, 0xd6,
//  0x33, 0x00, 0x65, 0x22, 0x70, 0xe2, 0xfd, 0x55, 0xce, 0xef, 0xda, 0x4d,
//  0xd6, 0xe5, 0x86, 0x81, 0x6f, 0x2f, 0x1c, 0x24, 0xc4, 0xbc, 0xc3, 0x52,
//  0x14, 0xe9, 0x4e, 0xd2, 0xb1, 0x0b, 0x04, 0x37, 0xcd, 0x30, 0xd4, 0x22,
//  0x6f, 0x42, 0x2a, 0xfd, 0x8f, 0xfa, 0xcf, 0xd4, 0xe0, 0x93, 0x08, 0x30,
//  0xe4, 0x13, 0xa4, 0xc4, 0xf1, 0xd4, 0x5c, 0x57, 0x01, 0xe4, 0x31, 0x49,
//  0x20, 0xe9, 0x33, 0x5e, 0x5e, 0x02, 0x4e, 0x3d, 0x8e, 0xdb, 0xfd, 0xdf,
//  0x16, 0xae, 0x52, 0x26, 0x14, 0x15, 0x36, 0xf8, 0x2f, 0x7f, 0xf8, 0x1e,
//  0x4b, 0xdd, 0xc8, 0x58, 0xd9, 0xa6, 0x0e, 0x1e, 0x08, 0x30, 0x1f, 0x41,
//  0x10, 0xad, 0xa0, 0x16, 0xc6, 0x81, 0xe7, 0x35, 0x0f, 0x4e, 0x29, 0xe5,
//  0xf4, 0x36, 0x4b, 0x16, 0x45, 0x38, 0x07, 0xa6, 0xea, 0x10, 0x38, 0x22,
//  0x39, 0xed, 0x17, 0x5a, 0xe3, 0xda, 0xe6, 0x32, 0x3d, 0xf5, 0x34, 0x2d,
//  0x2c, 0x43, 0xbf, 0xc5, 0x7f, 0x9f, 0x35, 0x07, 0xe7, 0x8a, 0xcd, 0x1c,
//  0x12, 0x36, 0x50, 0x41, 0x81, 0xd9, 0xbf, 0x38, 0x81, 0x7f, 0x1d, 0xd7,
//  0xfd, 0x7f, 0xdf, 0x43, 0x19, 0x3d, 0x22, 0x7f, 0x81, 0x65, 0x8a, 0x31,
//  0xf4, 0x49, 0xd9, 0x5a, 0x81, 0xab, 0x30, 0x41, 0x22, 0x3f, 0x7f, 0x1f,
//  0xcb, 0x32, 0x1c, 0xe8, 0xb3, 0xc6, 0xdc, 0xc1, 0xe1, 0x8c, 0xc5, 0x56,
//  0x03, 0x7f, 0x4f, 0x31, 0xcb, 0xc4, 0xc1, 0x4d, 0x16, 0x81, 0xaa, 0x57,
//  0xe9, 0x58, 0x02, 0xa4, 0x7f, 0x50, 0x7f, 0x7f, 0x90, 0x81, 0xf8, 0x75,
//  0x19, 0xe2, 0x5a, 0x81, 0xda, 0x2c, 0x7f, 0x23, 0x81, 0x1b, 0x0d, 0x32,
//  0x44, 0x27, 0x68, 0x7f, 0xf1, 0x57, 0x81, 0xe8, 0x90, 0xd8, 0x7e, 0x7f,
//  0xbb, 0x74, 0x29, 0x81, 0x81, 0x81, 0x1f, 0x15, 0xbc, 0xf6, 0x35, 0x23,
//  0x36, 0xb4, 0x7f, 0x7f, 0x51, 0x63, 0x0e, 0x7f, 0xd2, 0xc6, 0xc4, 0xc2,
//  0xe1, 0xc4, 0xee, 0x4f, 0x6c, 0x39, 0x62, 0xcd, 0x7e, 0x58, 0x1f, 0x31,
//  0xe7, 0xb8, 0x14, 0x7f, 0xad, 0xcc, 0x25, 0xd6, 0x7f, 0x5e, 0x0a, 0x7f,
//  0xb5, 0xb9, 0xe7, 0xf3, 0x98, 0xf2, 0xd3, 0x6e, 0x30, 0x7f, 0xf0, 0xc2,
//  0xd6, 0x69, 0x7c, 0x5c, 0x03, 0x7f, 0xca, 0xa1, 0xa4, 0xcb, 0x3e, 0x12,
//  0x81, 0x7f, 0x70, 0x30, 0x26, 0xe8, 0xa4, 0x6c, 0x7f, 0x6f, 0x7f, 0x34,
//  0x7f, 0x7f, 0xae, 0x0a, 0x30, 0xfc, 0x09, 0x7f, 0x92, 0x0a, 0x81, 0xe9,
//  0x26, 0x7c, 0xff, 0xff, 0x00, 0x00, 0x00, 0x09, 0x10, 0x00, 0x00, 0x00,
//  0x11, 0x00, 0x00, 0x00, 0x1c, 0x00, 0x00, 0x00, 0x04, 0x01, 0x00, 0x00,
//  0x04, 0x00, 0x00, 0x00, 0x01, 0x00, 0x00, 0x00, 0x03, 0x00, 0x00, 0x00,
//  0x03, 0x00, 0x00, 0x00, 0x40, 0x00, 0x00, 0x00, 0xe4, 0x00, 0x00, 0x00,
//  0x73, 0x65, 0x71, 0x75, 0x65, 0x6e, 0x74, 0x69, 0x61, 0x6c, 0x2f, 0x62,
//  0x61, 0x74, 0x63, 0x68, 0x5f, 0x6e, 0x6f, 0x72, 0x6d, 0x61, 0x6c, 0x69,
//  0x7a, 0x61, 0x74, 0x69, 0x6f, 0x6e, 0x5f, 0x37, 0x2f, 0x46, 0x75, 0x73,
//  0x65, 0x64, 0x42, 0x61, 0x74, 0x63, 0x68, 0x4e, 0x6f, 0x72, 0x6d, 0x56,
//  0x33, 0x3b, 0x73, 0x65, 0x71, 0x75, 0x65, 0x6e, 0x74, 0x69, 0x61, 0x6c,
//  0x2f, 0x64, 0x65, 0x70, 0x74, 0x68, 0x77, 0x69, 0x73, 0x65, 0x5f, 0x63,
//  0x6f, 0x6e, 0x76, 0x32, 0x64, 0x5f, 0x34, 0x2f, 0x64, 0x65, 0x70, 0x74,
//  0x68, 0x77, 0x69, 0x73, 0x65, 0x3b, 0x73, 0x65, 0x71, 0x75, 0x65, 0x6e,
//  0x74, 0x69, 0x61, 0x6c, 0x2f, 0x64, 0x65, 0x70, 0x74, 0x68, 0x77, 0x69,
//  0x73, 0x65, 0x5f, 0x63, 0x6f, 0x6e, 0x76, 0x32, 0x64, 0x5f, 0x34, 0x2f,
//  0x42, 0x69, 0x61, 0x73, 0x41, 0x64, 0x64, 0x3b, 0x73, 0x65, 0x71, 0x75,
//  0x65, 0x6e, 0x74, 0x69, 0x61, 0x6c, 0x2f, 0x64, 0x65, 0x70, 0x74, 0x68,
//  0x77, 0x69, 0x73, 0x65, 0x5f, 0x63, 0x6f, 0x6e, 0x76, 0x32, 0x64, 0x2f,
//  0x64, 0x65, 0x70, 0x74, 0x68, 0x77, 0x69, 0x73, 0x65, 0x3b, 0x73, 0x65,
//  0x71, 0x75, 0x65, 0x6e, 0x74, 0x69, 0x61, 0x6c, 0x2f, 0x64, 0x65, 0x70,
//  0x74, 0x68, 0x77, 0x69, 0x73, 0x65, 0x5f, 0x63, 0x6f, 0x6e, 0x76, 0x32,
//  0x64, 0x5f, 0x34, 0x2f, 0x42, 0x69, 0x61, 0x73, 0x41, 0x64, 0x64, 0x2f,
//  0x52, 0x65, 0x61, 0x64, 0x56, 0x61, 0x72, 0x69, 0x61, 0x62, 0x6c, 0x65,
//  0x4f, 0x70, 0x2f, 0x72, 0x65, 0x73, 0x6f, 0x75, 0x72, 0x63, 0x65, 0x31,
//  0x00, 0x00, 0x00, 0x00, 0x8a, 0x80, 0xff, 0xff, 0x0c, 0x00, 0x00, 0x00,
//  0x0c, 0x01, 0x00, 0x00, 0x03, 0x00, 0x00, 0x00, 0x40, 0x00, 0x00, 0x00,
//  0xc5, 0xd0, 0x53, 0x3c, 0xac, 0xe6, 0xd1, 0x3c, 0xac, 0x21, 0x88, 0x3c,
//  0xd2, 0x5f, 0xa7, 0x3c, 0xe5, 0x21, 0x9e, 0x3b, 0x1c, 0x08, 0x9e, 0x3b,
//  0x68, 0x07, 0x95, 0x3b, 0x66, 0x67, 0xf2, 0x3b, 0x65, 0x39, 0x2f, 0x3c,
//  0x54, 0xb9, 0x7a, 0x3b, 0xa8, 0x25, 0xf5, 0x3b, 0xdd, 0x72, 0xed, 0x3b,
//  0xe0, 0xfd, 0x5d, 0x3c, 0xba, 0x84, 0x31, 0x3c, 0x3b, 0x81, 0xfe, 0x3b,
//  0xc4, 0xaa, 0x71, 0x3b, 0x60, 0xdf, 0xf0, 0x3b, 0x1d, 0xe6, 0x12, 0x3c,
//  0x63, 0xa6, 0x67, 0x3b, 0x25, 0x33, 0x18, 0x3c, 0xa7, 0xb4, 0xc1, 0x3b,
//  0xdb, 0x30, 0x9b, 0x3b, 0x96, 0x0f, 0x3f, 0x3c, 0x0e, 0xd3, 0x4a, 0x3c,
//  0x58, 0xe2, 0x95, 0x3b, 0x8c, 0x93, 0x45, 0x3c, 0x82, 0xb5, 0xcd, 0x3b,
//  0xfb, 0x66, 0x3c, 0x3d, 0x6f, 0xc5, 0x0e, 0x3c, 0xa2, 0x20, 0xf5, 0x3b,
//  0x32, 0x73, 0xc8, 0x3c, 0x2c, 0x96, 0x8c, 0x3b, 0xd5, 0x0b, 0x17, 0x3c,
//  0x5a, 0x35, 0x54, 0x3c, 0xc6, 0xc5, 0x05, 0x3c, 0x3d, 0x4a, 0x9a, 0x3b,
//  0xb6, 0x02, 0xdc, 0x3b, 0xe1, 0x8b, 0xe1, 0x3b, 0x0c, 0xce, 0x71, 0x3c,
//  0xb1, 0x34, 0x8d, 0x3b, 0xc8, 0xb8, 0x0a, 0x3c, 0x1c, 0xc9, 0x50, 0x3b,
//  0x8c, 0x92, 0x10, 0x3c, 0x25, 0x25, 0x8d, 0x3c, 0xf7, 0xd4, 0xaa, 0x3b,
//  0x33, 0xbe, 0x21, 0x3c, 0x94, 0xd9, 0xba, 0x3b, 0x3e, 0x8b, 0x38, 0x3b,
//  0x06, 0x1d, 0x83, 0x3c, 0xa9, 0xa5, 0xde, 0x3b, 0x76, 0xbe, 0x03, 0x3c,
//  0x87, 0x52, 0xed, 0x3c, 0x78, 0x43, 0x49, 0x3c, 0xe4, 0x1a, 0x06, 0x3c,
//  0xeb, 0x4e, 0x62, 0x3b, 0xd2, 0xe2, 0x0d, 0x3c, 0x66, 0xb7, 0x16, 0x3c,
//  0xcd, 0xd4, 0x96, 0x3b, 0x8f, 0xc0, 0xed, 0x3b, 0x7f, 0x1f, 0x09, 0x3c,
//  0xa1, 0x94, 0x04, 0x3c, 0xf6, 0xea, 0x04, 0x3c, 0xca, 0xee, 0xa9, 0x3b,
//  0x10, 0xe9, 0xfc, 0x3b, 0x40, 0x00, 0x00, 0x00, 0x00, 0x00, 0x00, 0x00,
//  0x00, 0x00, 0x00, 0x00, 0x00, 0x00, 0x00, 0x00, 0x00, 0x00, 0x00, 0x00,
//  0x00, 0x00, 0x00, 0x00, 0x00, 0x00, 0x00, 0x00, 0x00, 0x00, 0x00, 0x00,
//  0x00, 0x00, 0x00, 0x00, 0x00, 0x00, 0x00, 0x00, 0x00, 0x00, 0x00, 0x00,
//  0x00, 0x00, 0x00, 0x00, 0x00, 0x00, 0x00, 0x00, 0x00, 0x00, 0x00, 0x00,
//  0x00, 0x00, 0x00, 0x00, 0x00, 0x00, 0x00, 0x00, 0x00, 0x00, 0x00, 0x00,
//  0x00, 0x00, 0x00, 0x00, 0x00, 0x00, 0x00, 0x00, 0x00, 0x00, 0x00, 0x00,
//  0x00, 0x00, 0x00, 0x00, 0x00, 0x00, 0x00, 0x00, 0x00, 0x00, 0x00, 0x00,
//  0x00, 0x00, 0x00, 0x00, 0x00, 0x00, 0x00, 0x00, 0x00, 0x00, 0x00, 0x00,
//  0x00, 0x00, 0x00, 0x00, 0x00, 0x00, 0x00, 0x00, 0x00, 0x00, 0x00, 0x00,
//  0x00, 0x00, 0x00, 0x00, 0x00, 0x00, 0x00, 0x00, 0x00, 0x00, 0x00, 0x00,
//  0x00, 0x00, 0x00, 0x00, 0x00, 0x00, 0x00, 0x00, 0x00, 0x00, 0x00, 0x00,
//  0x00, 0x00, 0x00, 0x00, 0x00, 0x00, 0x00, 0x00, 0x00, 0x00, 0x00, 0x00,
//  0x00, 0x00, 0x00, 0x00, 0x00, 0x00, 0x00, 0x00, 0x00, 0x00, 0x00, 0x00,
//  0x00, 0x00, 0x00, 0x00, 0x00, 0x00, 0x00, 0x00, 0x00, 0x00, 0x00, 0x00,
//  0x00, 0x00, 0x00, 0x00, 0x00, 0x00, 0x00, 0x00, 0x00, 0x00, 0x00, 0x00,
//  0x00, 0x00, 0x00, 0x00, 0x00, 0x00, 0x00, 0x00, 0x00, 0x00, 0x00, 0x00,
//  0x00, 0x00, 0x00, 0x00, 0x00, 0x00, 0x00, 0x00, 0x00, 0x00, 0x00, 0x00,
